{
  "version": "1.0",
  "truncation": null,
  "padding": null,
  "added_tokens": [
    {
      "id": 0,
      "content": "<|begin_of_text|>",
      "single_word": false,
      "lstrip": false,
      "rstrip": false,
      "normalized": false,
      "special": true
    },
    {
      "id": 1,
      "content": "<|end_of_text|>",
      "single_word": false,
      "lstrip": false,
      "rstrip": false,
      "normalized": false,
      "special": true
    },
    {
      "id": 2,
      "content": "<|reserved_special_token_0|>",
      "single_word": false,
      "lstrip": false,
      "rstrip": false,
      "normalized": false,
      "special": true
    },
    {
      "id": 3,
      "content": "<|reserved_special_token_1|>",
      "single_word": false,
      "lstrip": false,
      "rstrip": false,
      "normalized": false,
      "special": true
    },
    {
      "id": 4,
      "content": "<|finetune_right_pad_id|>",
      "single_word": false,
      "lstrip": false,
      "rstrip": false,
      "normalized": false,
      "special": true
    },
    {
      "id": 5,
      "content": "<|reserved_special_token_2|>",
      "single_word": false,
      "lstrip": false,
      "rstrip": false,
      "normalized": false,
      "special": true
    },
    {
      "id": 6,
      "content": "<|start_header_id|>",
      "single_word": false,
      "lstrip": false,
      "rstrip": false,
      "normalized": false,
      "special": true
    },
    {
      "id": 7,
      "content": "<|end_header_id|>",
      "single_word": false,
      "lstrip": false,
      "rstrip": false,
      "normalized": false,
      "special": true
    },
    {
      "id": 8,
      "content": "<|eom_id|>",
      "single_word": false,
      "lstrip": false,
      "rstrip": false,
      "normalized": false,
      "special": true
    },
    {
      "id": 9,
      "content": "<|eot_id|>",
      "single_word": false,
      "lstrip": false,
      "rstrip": false,
      "normalized": false,
      "special": true
    },
    {
      "id": 10,
      "content": "<|python_tag|>",
      "single_word": false,
      "lstrip": false,
      "rstrip": false,
      "normalized": false,
      "special": true
    },
    {
      "id": 11,
      "content": "<|reserved_special_token_3|>",
      "single_word": false,
      "lstrip": false,
      "rstrip": false,
      "normalized": false,
      "special": true
    },
    {
      "id": 12,
      "content": "<|reserved_special_token_4|>",
      "single_word": false,
      "lstrip": false,
      "rstrip": false,
      "normalized": false,
      "special": true
    },
    {
      "id": 13,
      "content": "<|reserved_special_token_5|>",
      "single_word": false,
      "lstrip": false,
      "rstrip": false,
      "normalized": false,
      "special": true
    },
    {
      "id": 14,
      "content": "<|reserved_special_token_6|>",
      "single_word": false,
      "lstrip": false,
      "rstrip": false,
      "normalized": false,
      "special": true
    },
    {
      "id": 15,
      "content": "<|reserved_special_token_7|>",
      "single_word": false,
      "lstrip": false,
      "rstrip": false,
      "normalized": false,
      "special": true
    },
    {
      "id": 16,
      "content": "<|reserved_special_token_8|>",
      "single_word": false,
      "lstrip": false,
      "rstrip": false,
      "normalized": false,
      "special": true
    },
    {
      "id": 17,
      "content": "<|reserved_special_token_9|>",
      "single_word": false,
      "lstrip": false,
      "rstrip": false,
      "normalized": false,
      "special": true
    },
    {
      "id": 18,
      "content": "<|reserved_special_token_10|>",
      "single_word": false,
      "lstrip": false,
      "rstrip": false,
      "normalized": false,
      "special": true
    },
    {
      "id": 19,
      "content": "<|reserved_special_token_11|>",
      "single_word": false,
      "lstrip": false,
      "rstrip": false,
      "normalized": false,
      "special": true
    },
    {
      "id": 20,
      "content": "<|reserved_special_token_12|>",
      "single_word": false,
      "lstrip": false,
      "rstrip": false,
      "normalized": false,
      "special": true
    },
    {
      "id": 21,
      "content": "<|reserved_special_token_13|>",
      "single_word": false,
      "lstrip": false,
      "rstrip": false,
      "normalized": false,
      "special": true
    },
    {
      "id": 22,
      "content": "<|reserved_special_token_14|>",
      "single_word": false,
      "lstrip": false,
      "rstrip": false,
      "normalized": false,
      "special": true
    },
    {
      "id": 23,
      "content": "<|reserved_special_token_15|>",
      "single_word": false,
      "lstrip": false,
      "rstrip": false,
      "normalized": false,
      "special": true
    },
    {
      "id": 24,
      "content": "<|reserved_special_token_16|>",
      "single_word": false,
      "lstrip": false,
      "rstrip": false,
      "normalized": false,
      "special": true
    },
    {
      "id": 25,
      "content": "<|reserved_special_token_17|>",
      "single_word": false,
      "lstrip": false,
      "rstrip": false,
      "normalized": false,
      "special": true
    },
    {
      "id": 26,
      "content": "<|reserved_special_token_18|>",
      "single_word": false,
      "lstrip": false,
      "rstrip": false,
      "normalized": false,
      "special": true
    },
    {
      "id": 27,
      "content": "<|reserved_special_token_19|>",
      "single_word": false,
      "lstrip": false,
      "rstrip": false,
      "normalized": false,
      "special": true
    },
    {
      "id": 28,
      "content": "<|reserved_special_token_20|>",
      "single_word": false,
      "lstrip": false,
      "rstrip": false,
      "normalized": false,
      "special": true
    },
    {
      "id": 29,
      "content": "<|reserved_special_token_21|>",
      "single_word": false,
      "lstrip": false,
      "rstrip": false,
      "normalized": false,
      "special": true
    },
    {
      "id": 30,
      "content": "<|reserved_special_token_22|>",
      "single_word": false,
      "lstrip": false,
      "rstrip": false,
      "normalized": false,
      "special": true
    },
    {
      "id": 31,
      "content": "<|reserved_special_token_23|>",
      "single_word": false,
      "lstrip": false,
      "rstrip": false,
      "normalized": false,
      "special": true
    },
    {
      "id": 32,
      "content": "<|reserved_special_token_24|>",
      "single_word": false,
      "lstrip": false,
      "rstrip": false,
      "normalized": false,
      "special": true
    },
    {
      "id": 33,
      "content": "<|reserved_special_token_25|>",
      "single_word": false,
      "lstrip": false,
      "rstrip": false,
      "normalized": false,
      "special": true
    },
    {
      "id": 34,
      "content": "<|reserved_special_token_26|>",
      "single_word": false,
      "lstrip": false,
      "rstrip": false,
      "normalized": false,
      "special": true
    },
    {
      "id": 35,
      "content": "<|reserved_special_token_27|>",
      "single_word": false,
      "lstrip": false,
      "rstrip": false,
      "normalized": false,
      "special": true
    },
    {
      "id": 36,
      "content": "<|reserved_special_token_28|>",
      "single_word": false,
      "lstrip": false,
      "rstrip": false,
      "normalized": false,
      "special": true
    },
    {
      "id": 37,
      "content": "<|reserved_special_token_29|>",
      "single_word": false,
      "lstrip": false,
      "rstrip": false,
      "normalized": false,
      "special": true
    },
    {
      "id": 38,
      "content": "<|reserved_special_token_30|>",
      "single_word": false,
      "lstrip": false,
      "rstrip": false,
      "normalized": false,
      "special": true
    },
    {
      "id": 39,
      "content": "<|reserved_special_token_31|>",
      "single_word": false,
      "lstrip": false,
      "rstrip": false,
      "normalized": false,
      "special": true
    },
    {
      "id": 40,
      "content": "<|reserved_special_token_32|>",
      "single_word": false,
      "lstrip": false,
      "rstrip": false,
      "normalized": false,
      "special": true
    },
    {
      "id": 41,
      "content": "<|reserved_special_token_33|>",
      "single_word": false,
      "lstrip": false,
      "rstrip": false,
      "normalized": false,
      "special": true
    },
    {
      "id": 42,
      "content": "<|reserved_special_token_34|>",
      "single_word": false,
      "lstrip": false,
      "rstrip": false,
      "normalized": false,
      "special": true
    },
    {
      "id": 43,
      "content": "<|reserved_special_token_35|>",
      "single_word": false,
      "lstrip": false,
      "rstrip": false,
      "normalized": false,
      "special": true
    },
    {
      "id": 44,
      "content": "<|reserved_special_token_36|>",
      "single_word": false,
      "lstrip": false,
      "rstrip": false,
      "normalized": false,
      "special": true
    },
    {
      "id": 45,
      "content": "<|reserved_special_token_37|>",
      "single_word": false,
      "lstrip": false,
      "rstrip": false,
      "normalized": false,
      "special": true
    },
    {
      "id": 46,
      "content": "<|reserved_special_token_38|>",
      "single_word": false,
      "lstrip": false,
      "rstrip": false,
      "normalized": false,
      "special": true
    },
    {
      "id": 47,
      "content": "<|reserved_special_token_39|>",
      "single_word": false,
      "lstrip": false,
      "rstrip": false,
      "normalized": false,
      "special": true
    },
    {
      "id": 48,
      "content": "<|reserved_special_token_40|>",
      "single_word": false,
      "lstrip": false,
      "rstrip": false,
      "normalized": false,
      "special": true
    },
    {
      "id": 49,
      "content": "<|reserved_special_token_41|>",
      "single_word": false,
      "lstrip": false,
      "rstrip": false,
      "normalized": false,
      "special": true
    },
    {
      "id": 50,
      "content": "<|reserved_special_token_42|>",
      "single_word": false,
      "lstrip": false,
      "rstrip": false,
      "normalized": false,
      "special": true
    },
    {
      "id": 51,
      "content": "<|reserved_special_token_43|>",
      "single_word": false,
      "lstrip": false,
      "rstrip": false,
      "normalized": false,
      "special": true
    },
    {
      "id": 52,
      "content": "<|reserved_special_token_44|>",
      "single_word": false,
      "lstrip": false,
      "rstrip": false,
      "normalized": false,
      "special": true
    },
    {
      "id": 53,
      "content": "<|reserved_special_token_45|>",
      "single_word": false,
      "lstrip": false,
      "rstrip": false,
      "normalized": false,
      "special": true
    },
    {
      "id": 54,
      "content": "<|reserved_special_token_46|>",
      "single_word": false,
      "lstrip": false,
      "rstrip": false,
      "normalized": false,
      "special": true
    },
    {
      "id": 55,
      "content": "<|reserved_special_token_47|>",
      "single_word": false,
      "lstrip": false,
      "rstrip": false,
      "normalized": false,
      "special": true
    },
    {
      "id": 56,
      "content": "<|reserved_special_token_48|>",
      "single_word": false,
      "lstrip": false,
      "rstrip": false,
      "normalized": false,
      "special": true
    },
    {
      "id": 57,
      "content": "<|reserved_special_token_49|>",
      "single_word": false,
      "lstrip": false,
      "rstrip": false,
      "normalized": false,
      "special": true
    },
    {
      "id": 58,
      "content": "<|reserved_special_token_50|>",
      "single_word": false,
      "lstrip": false,
      "rstrip": false,
      "normalized": false,
      "special": true
    },
    {
      "id": 59,
      "content": "<|reserved_special_token_51|>",
      "single_word": false,
      "lstrip": false,
      "rstrip": false,
      "normalized": false,
      "special": true
    },
    {
      "id": 60,
      "content": "<|reserved_special_token_52|>",
      "single_word": false,
      "lstrip": false,
      "rstrip": false,
      "normalized": false,
      "special": true
    },
    {
      "id": 61,
      "content": "<|reserved_special_token_53|>",
      "single_word": false,
      "lstrip": false,
      "rstrip": false,
      "normalized": false,
      "special": true
    },
    {
      "id": 62,
      "content": "<|reserved_special_token_54|>",
      "single_word": false,
      "lstrip": false,
      "rstrip": false,
      "normalized": false,
      "special": true
    },
    {
      "id": 63,
      "content": "<|reserved_special_token_55|>",
      "single_word": false,
      "lstrip": false,
      "rstrip": false,
      "normalized": false,
      "special": true
    },
    {
      "id": 64,
      "content": "<|reserved_special_token_56|>",
      "single_word": false,
      "lstrip": false,
      "rstrip": false,
      "normalized": false,
      "special": true
    },
    {
      "id": 65,
      "content": "<|reserved_special_token_57|>",
      "single_word": false,
      "lstrip": false,
      "rstrip": false,
      "normalized": false,
      "special": true
    },
    {
      "id": 66,
      "content": "<|reserved_special_token_58|>",
      "single_word": false,
      "lstrip": false,
      "rstrip": false,
      "normalized": false,
      "special": true
    },
    {
      "id": 67,
      "content": "<|reserved_special_token_59|>",
      "single_word": false,
      "lstrip": false,
      "rstrip": false,
      "normalized": false,
      "special": true
    },
    {
      "id": 68,
      "content": "<|reserved_special_token_60|>",
      "single_word": false,
      "lstrip": false,
      "rstrip": false,
      "normalized": false,
      "special": true
    },
    {
      "id": 69,
      "content": "<|reserved_special_token_61|>",
      "single_word": false,
      "lstrip": false,
      "rstrip": false,
      "normalized": false,
      "special": true
    },
    {
      "id": 70,
      "content": "<|reserved_special_token_62|>",
      "single_word": false,
      "lstrip": false,
      "rstrip": false,
      "normalized": false,
      "special": true
    },
    {
      "id": 71,
      "content": "<|reserved_special_token_63|>",
      "single_word": false,
      "lstrip": false,
      "rstrip": false,
      "normalized": false,
      "special": true
    },
    {
      "id": 72,
      "content": "<|reserved_special_token_64|>",
      "single_word": false,
      "lstrip": false,
      "rstrip": false,
      "normalized": false,
      "special": true
    },
    {
      "id": 73,
      "content": "<|reserved_special_token_65|>",
      "single_word": false,
      "lstrip": false,
      "rstrip": false,
      "normalized": false,
      "special": true
    },
    {
      "id": 74,
      "content": "<|reserved_special_token_66|>",
      "single_word": false,
      "lstrip": false,
      "rstrip": false,
      "normalized": false,
      "special": true
    },
    {
      "id": 75,
      "content": "<|reserved_special_token_67|>",
      "single_word": false,
      "lstrip": false,
      "rstrip": false,
      "normalized": false,
      "special": true
    },
    {
      "id": 76,
      "content": "<|reserved_special_token_68|>",
      "single_word": false,
      "lstrip": false,
      "rstrip": false,
      "normalized": false,
      "special": true
    },
    {
      "id": 77,
      "content": "<|reserved_special_token_69|>",
      "single_word": false,
      "lstrip": false,
      "rstrip": false,
      "normalized": false,
      "special": true
    },
    {
      "id": 78,
      "content": "<|reserved_special_token_70|>",
      "single_word": false,
      "lstrip": false,
      "rstrip": false,
      "normalized": false,
      "special": true
    },
    {
      "id": 79,
      "content": "<|reserved_special_token_71|>",
      "single_word": false,
      "lstrip": false,
      "rstrip": false,
      "normalized": false,
      "special": true
    },
    {
      "id": 80,
      "content": "<|reserved_special_token_72|>",
      "single_word": false,
      "lstrip": false,
      "rstrip": false,
      "normalized": false,
      "special": true
    },
    {
      "id": 81,
      "content": "<|reserved_special_token_73|>",
      "single_word": false,
      "lstrip": false,
      "rstrip": false,
      "normalized": false,
      "special": true
    },
    {
      "id": 82,
      "content": "<|reserved_special_token_74|>",
      "single_word": false,
      "lstrip": false,
      "rstrip": false,
      "normalized": false,
      "special": true
    },
    {
      "id": 83,
      "content": "<|reserved_special_token_75|>",
      "single_word": false,
      "lstrip": false,
      "rstrip": false,
      "normalized": false,
      "special": true
    },
    {
      "id": 84,
      "content": "<|reserved_special_token_76|>",
      "single_word": false,
      "lstrip": false,
      "rstrip": false,
      "normalized": false,
      "special": true
    },
    {
      "id": 85,
      "content": "<|reserved_special_token_77|>",
      "single_word": false,
      "lstrip": false,
      "rstrip": false,
      "normalized": false,
      "special": true
    },
    {
      "id": 86,
      "content": "<|reserved_special_token_78|>",
      "single_word": false,
      "lstrip": false,
      "rstrip": false,
      "normalized": false,
      "special": true
    },
    {
      "id": 87,
      "content": "<|reserved_special_token_79|>",
      "single_word": false,
      "lstrip": false,
      "rstrip": false,
      "normalized": false,
      "special": true
    },
    {
      "id": 88,
      "content": "<|reserved_special_token_80|>",
      "single_word": false,
      "lstrip": false,
      "rstrip": false,
      "normalized": false,
      "special": true
    },
    {
      "id": 89,
      "content": "<|reserved_special_token_81|>",
      "single_word": false,
      "lstrip": false,
      "rstrip": false,
      "normalized": false,
      "special": true
    },
    {
      "id": 90,
      "content": "<|reserved_special_token_82|>",
      "single_word": false,
      "lstrip": false,
      "rstrip": false,
      "normalized": false,
      "special": true
    },
    {
      "id": 91,
      "content": "<|reserved_special_token_83|>",
      "single_word": false,
      "lstrip": false,
      "rstrip": false,
      "normalized": false,
      "special": true
    },
    {
      "id": 92,
      "content": "<|reserved_special_token_84|>",
      "single_word": false,
      "lstrip": false,
      "rstrip": false,
      "normalized": false,
      "special": true
    },
    {
      "id": 93,
      "content": "<|reserved_special_token_85|>",
      "single_word": false,
      "lstrip": false,
      "rstrip": false,
      "normalized": false,
      "special": true
    },
    {
      "id": 94,
      "content": "<|reserved_special_token_86|>",
      "single_word": false,
      "lstrip": false,
      "rstrip": false,
      "normalized": false,
      "special": true
    },
    {
      "id": 95,
      "content": "<|reserved_special_token_87|>",
      "single_word": false,
      "lstrip": false,
      "rstrip": false,
      "normalized": false,
      "special": true
    },
    {
      "id": 96,
      "content": "<|reserved_special_token_88|>",
      "single_word": false,
      "lstrip": false,
      "rstrip": false,
      "normalized": false,
      "special": true
    },
    {
      "id": 97,
      "content": "<|reserved_special_token_89|>",
      "single_word": false,
      "lstrip": false,
      "rstrip": false,
      "normalized": false,
      "special": true
    },
    {
      "id": 98,
      "content": "<|reserved_special_token_90|>",
      "single_word": false,
      "lstrip": false,
      "rstrip": false,
      "normalized": false,
      "special": true
    },
    {
      "id": 99,
      "content": "<|reserved_special_token_91|>",
      "single_word": false,
      "lstrip": false,
      "rstrip": false,
      "normalized": false,
      "special": true
    },
    {
      "id": 100,
      "content": "<|reserved_special_token_92|>",
      "single_word": false,
      "lstrip": false,
      "rstrip": false,
      "normalized": false,
      "special": true
    },
    {
      "id": 101,
      "content": "<|reserved_special_token_93|>",
      "single_word": false,
      "lstrip": false,
      "rstrip": false,
      "normalized": false,
      "special": true
    },
    {
      "id": 102,
      "content": "<|reserved_special_token_94|>",
      "single_word": false,
      "lstrip": false,
      "rstrip": false,
      "normalized": false,
      "special": true
    },
    {
      "id": 103,
      "content": "<|reserved_special_token_95|>",
      "single_word": false,
      "lstrip": false,
      "rstrip": false,
      "normalized": false,
      "special": true
    },
    {
      "id": 104,
      "content": "<|reserved_special_token_96|>",
      "single_word": false,
      "lstrip": false,
      "rstrip": false,
      "normalized": false,
      "special": true
    },
    {
      "id": 105,
      "content": "<|reserved_special_token_97|>",
      "single_word": false,
      "lstrip": false,
      "rstrip": false,
      "normalized": false,
      "special": true
    },
    {
      "id": 106,
      "content": "<|reserved_special_token_98|>",
      "single_word": false,
      "lstrip": false,
      "rstrip": false,
      "normalized": false,
      "special": true
    },
    {
      "id": 107,
      "content": "<|reserved_special_token_99|>",
      "single_word": false,
      "lstrip": false,
      "rstrip": false,
      "normalized": false,
      "special": true
    },
    {
      "id": 108,
      "content": "<|reserved_special_token_100|>",
      "single_word": false,
      "lstrip": false,
      "rstrip": false,
      "normalized": false,
      "special": true
    },
    {
      "id": 109,
      "content": "<|reserved_special_token_101|>",
      "single_word": false,
      "lstrip": false,
      "rstrip": false,
      "normalized": false,
      "special": true
    },
    {
      "id": 110,
      "content": "<|reserved_special_token_102|>",
      "single_word": false,
      "lstrip": false,
      "rstrip": false,
      "normalized": false,
      "special": true
    },
    {
      "id": 111,
      "content": "<|reserved_special_token_103|>",
      "single_word": false,
      "lstrip": false,
      "rstrip": false,
      "normalized": false,
      "special": true
    },
    {
      "id": 112,
      "content": "<|reserved_special_token_104|>",
      "single_word": false,
      "lstrip": false,
      "rstrip": false,
      "normalized": false,
      "special": true
    },
    {
      "id": 113,
      "content": "<|reserved_special_token_105|>",
      "single_word": false,
      "lstrip": false,
      "rstrip": false,
      "normalized": false,
      "special": true
    },
    {
      "id": 114,
      "content": "<|reserved_special_token_106|>",
      "single_word": false,
      "lstrip": false,
      "rstrip": false,
      "normalized": false,
      "special": true
    },
    {
      "id": 115,
      "content": "<|reserved_special_token_107|>",
      "single_word": false,
      "lstrip": false,
      "rstrip": false,
      "normalized": false,
      "special": true
    },
    {
      "id": 116,
      "content": "<|reserved_special_token_108|>",
      "single_word": false,
      "lstrip": false,
      "rstrip": false,
      "normalized": false,
      "special": true
    },
    {
      "id": 117,
      "content": "<|reserved_special_token_109|>",
      "single_word": false,
      "lstrip": false,
      "rstrip": false,
      "normalized": false,
      "special": true
    },
    {
      "id": 118,
      "content": "<|reserved_special_token_110|>",
      "single_word": false,
      "lstrip": false,
      "rstrip": false,
      "normalized": false,
      "special": true
    },
    {
      "id": 119,
      "content": "<|reserved_special_token_111|>",
      "single_word": false,
      "lstrip": false,
      "rstrip": false,
      "normalized": false,
      "special": true
    },
    {
      "id": 120,
      "content": "<|reserved_special_token_112|>",
      "single_word": false,
      "lstrip": false,
      "rstrip": false,
      "normalized": false,
      "special": true
    },
    {
      "id": 121,
      "content": "<|reserved_special_token_113|>",
      "single_word": false,
      "lstrip": false,
      "rstrip": false,
      "normalized": false,
      "special": true
    },
    {
      "id": 122,
      "content": "<|reserved_special_token_114|>",
      "single_word": false,
      "lstrip": false,
      "rstrip": false,
      "normalized": false,
      "special": true
    },
    {
      "id": 123,
      "content": "<|reserved_special_token_115|>",
      "single_word": false,
      "lstrip": false,
      "rstrip": false,
      "normalized": false,
      "special": true
    },
    {
      "id": 124,
      "content": "<|reserved_special_token_116|>",
      "single_word": false,
      "lstrip": false,
      "rstrip": false,
      "normalized": false,
      "special": true
    },
    {
      "id": 125,
      "content": "<|reserved_special_token_117|>",
      "single_word": false,
      "lstrip": false,
      "rstrip": false,
      "normalized": false,
      "special": true
    },
    {
      "id": 126,
      "content": "<|reserved_special_token_118|>",
      "single_word": false,
      "lstrip": false,
      "rstrip": false,
      "normalized": false,
      "special": true
    },
    {
      "id": 127,
      "content": "<|reserved_special_token_119|>",
      "single_word": false,
      "lstrip": false,
      "rstrip": false,
      "normalized": false,
      "special": true
    },
    {
      "id": 128,
      "content": "<|reserved_special_token_120|>",
      "single_word": false,
      "lstrip": false,
      "rstrip": false,
      "normalized": false,
      "special": true
    },
    {
      "id": 129,
      "content": "<|reserved_special_token_121|>",
      "single_word": false,
      "lstrip": false,
      "rstrip": false,
      "normalized": false,
      "special": true
    },
    {
      "id": 130,
      "content": "<|reserved_special_token_122|>",
      "single_word": false,
      "lstrip": false,
      "rstrip": false,
      "normalized": false,
      "special": true
    },
    {
      "id": 131,
      "content": "<|reserved_special_token_123|>",
      "single_word": false,
      "lstrip": false,
      "rstrip": false,
      "normalized": false,
      "special": true
    },
    {
      "id": 132,
      "content": "<|reserved_special_token_124|>",
      "single_word": false,
      "lstrip": false,
      "rstrip": false,
      "normalized": false,
      "special": true
    },
    {
      "id": 133,
      "content": "<|reserved_special_token_125|>",
      "single_word": false,
      "lstrip": false,
      "rstrip": false,
      "normalized": false,
      "special": true
    },
    {
      "id": 134,
      "content": "<|reserved_special_token_126|>",
      "single_word": false,
      "lstrip": false,
      "rstrip": false,
      "normalized": false,
      "special": true
    },
    {
      "id": 135,
      "content": "<|reserved_special_token_127|>",
      "single_word": false,
      "lstrip": false,
      "rstrip": false,
      "normalized": false,
      "special": true
    },
    {
      "id": 136,
      "content": "<|reserved_special_token_128|>",
      "single_word": false,
      "lstrip": false,
      "rstrip": false,
      "normalized": false,
      "special": true
    },
    {
      "id": 137,
      "content": "<|reserved_special_token_129|>",
      "single_word": false,
      "lstrip": false,
      "rstrip": false,
      "normalized": false,
      "special": true
    },
    {
      "id": 138,
      "content": "<|reserved_special_token_130|>",
      "single_word": false,
      "lstrip": false,
      "rstrip": false,
      "normalized": false,
      "special": true
    },
    {
      "id": 139,
      "content": "<|reserved_special_token_131|>",
      "single_word": false,
      "lstrip": false,
      "rstrip": false,
      "normalized": false,
      "special": true
    },
    {
      "id": 140,
      "content": "<|reserved_special_token_132|>",
      "single_word": false,
      "lstrip": false,
      "rstrip": false,
      "normalized": false,
      "special": true
    },
    {
      "id": 141,
      "content": "<|reserved_special_token_133|>",
      "single_word": false,
      "lstrip": false,
      "rstrip": false,
      "normalized": false,
      "special": true
    },
    {
      "id": 142,
      "content": "<|reserved_special_token_134|>",
      "single_word": false,
      "lstrip": false,
      "rstrip": false,
      "normalized": false,
      "special": true
    },
    {
      "id": 143,
      "content": "<|reserved_special_token_135|>",
      "single_word": false,
      "lstrip": false,
      "rstrip": false,
      "normalized": false,
      "special": true
    },
    {
      "id": 144,
      "content": "<|reserved_special_token_136|>",
      "single_word": false,
      "lstrip": false,
      "rstrip": false,
      "normalized": false,
      "special": true
    },
    {
      "id": 145,
      "content": "<|reserved_special_token_137|>",
      "single_word": false,
      "lstrip": false,
      "rstrip": false,
      "normalized": false,
      "special": true
    },
    {
      "id": 146,
      "content": "<|reserved_special_token_138|>",
      "single_word": false,
      "lstrip": false,
      "rstrip": false,
      "normalized": false,
      "special": true
    },
    {
      "id": 147,
      "content": "<|reserved_special_token_139|>",
      "single_word": false,
      "lstrip": false,
      "rstrip": false,
      "normalized": false,
      "special": true
    },
    {
      "id": 148,
      "content": "<|reserved_special_token_140|>",
      "single_word": false,
      "lstrip": false,
      "rstrip": false,
      "normalized": false,
      "special": true
    },
    {
      "id": 149,
      "content": "<|reserved_special_token_141|>",
      "single_word": false,
      "lstrip": false,
      "rstrip": false,
      "normalized": false,
      "special": true
    },
    {
      "id": 150,
      "content": "<|reserved_special_token_142|>",
      "single_word": false,
      "lstrip": false,
      "rstrip": false,
      "normalized": false,
      "special": true
    },
    {
      "id": 151,
      "content": "<|reserved_special_token_143|>",
      "single_word": false,
      "lstrip": false,
      "rstrip": false,
      "normalized": false,
      "special": true
    },
    {
      "id": 152,
      "content": "<|reserved_special_token_144|>",
      "single_word": false,
      "lstrip": false,
      "rstrip": false,
      "normalized": false,
      "special": true
    },
    {
      "id": 153,
      "content": "<|reserved_special_token_145|>",
      "single_word": false,
      "lstrip": false,
      "rstrip": false,
      "normalized": false,
      "special": true
    },
    {
      "id": 154,
      "content": "<|reserved_special_token_146|>",
      "single_word": false,
      "lstrip": false,
      "rstrip": false,
      "normalized": false,
      "special": true
    },
    {
      "id": 155,
      "content": "<|reserved_special_token_147|>",
      "single_word": false,
      "lstrip": false,
      "rstrip": false,
      "normalized": false,
      "special": true
    },
    {
      "id": 156,
      "content": "<|reserved_special_token_148|>",
      "single_word": false,
      "lstrip": false,
      "rstrip": false,
      "normalized": false,
      "special": true
    },
    {
      "id": 157,
      "content": "<|reserved_special_token_149|>",
      "single_word": false,
      "lstrip": false,
      "rstrip": false,
      "normalized": false,
      "special": true
    },
    {
      "id": 158,
      "content": "<|reserved_special_token_150|>",
      "single_word": false,
      "lstrip": false,
      "rstrip": false,
      "normalized": false,
      "special": true
    },
    {
      "id": 159,
      "content": "<|reserved_special_token_151|>",
      "single_word": false,
      "lstrip": false,
      "rstrip": false,
      "normalized": false,
      "special": true
    },
    {
      "id": 160,
      "content": "<|reserved_special_token_152|>",
      "single_word": false,
      "lstrip": false,
      "rstrip": false,
      "normalized": false,
      "special": true
    },
    {
      "id": 161,
      "content": "<|reserved_special_token_153|>",
      "single_word": false,
      "lstrip": false,
      "rstrip": false,
      "normalized": false,
      "special": true
    },
    {
      "id": 162,
      "content": "<|reserved_special_token_154|>",
      "single_word": false,
      "lstrip": false,
      "rstrip": false,
      "normalized": false,
      "special": true
    },
    {
      "id": 163,
      "content": "<|reserved_special_token_155|>",
      "single_word": false,
      "lstrip": false,
      "rstrip": false,
      "normalized": false,
      "special": true
    },
    {
      "id": 164,
      "content": "<|reserved_special_token_156|>",
      "single_word": false,
      "lstrip": false,
      "rstrip": false,
      "normalized": false,
      "special": true
    },
    {
      "id": 165,
      "content": "<|reserved_special_token_157|>",
      "single_word": false,
      "lstrip": false,
      "rstrip": false,
      "normalized": false,
      "special": true
    },
    {
      "id": 166,
      "content": "<|reserved_special_token_158|>",
      "single_word": false,
      "lstrip": false,
      "rstrip": false,
      "normalized": false,
      "special": true
    },
    {
      "id": 167,
      "content": "<|reserved_special_token_159|>",
      "single_word": false,
      "lstrip": false,
      "rstrip": false,
      "normalized": false,
      "special": true
    },
    {
      "id": 168,
      "content": "<|reserved_special_token_160|>",
      "single_word": false,
      "lstrip": false,
      "rstrip": false,
      "normalized": false,
      "special": true
    },
    {
      "id": 169,
      "content": "<|reserved_special_token_161|>",
      "single_word": false,
      "lstrip": false,
      "rstrip": false,
      "normalized": false,
      "special": true
    },
    {
      "id": 170,
      "content": "<|reserved_special_token_162|>",
      "single_word": false,
      "lstrip": false,
      "rstrip": false,
      "normalized": false,
      "special": true
    },
    {
      "id": 171,
      "content": "<|reserved_special_token_163|>",
      "single_word": false,
      "lstrip": false,
      "rstrip": false,
      "normalized": false,
      "special": true
    },
    {
      "id": 172,
      "content": "<|reserved_special_token_164|>",
      "single_word": false,
      "lstrip": false,
      "rstrip": false,
      "normalized": false,
      "special": true
    },
    {
      "id": 173,
      "content": "<|reserved_special_token_165|>",
      "single_word": false,
      "lstrip": false,
      "rstrip": false,
      "normalized": false,
      "special": true
    },
    {
      "id": 174,
      "content": "<|reserved_special_token_166|>",
      "single_word": false,
      "lstrip": false,
      "rstrip": false,
      "normalized": false,
      "special": true
    },
    {
      "id": 175,
      "content": "<|reserved_special_token_167|>",
      "single_word": false,
      "lstrip": false,
      "rstrip": false,
      "normalized": false,
      "special": true
    },
    {
      "id": 176,
      "content": "<|reserved_special_token_168|>",
      "single_word": false,
      "lstrip": false,
      "rstrip": false,
      "normalized": false,
      "special": true
    },
    {
      "id": 177,
      "content": "<|reserved_special_token_169|>",
      "single_word": false,
      "lstrip": false,
      "rstrip": false,
      "normalized": false,
      "special": true
    },
    {
      "id": 178,
      "content": "<|reserved_special_token_170|>",
      "single_word": false,
      "lstrip": false,
      "rstrip": false,
      "normalized": false,
      "special": true
    },
    {
      "id": 179,
      "content": "<|reserved_special_token_171|>",
      "single_word": false,
      "lstrip": false,
      "rstrip": false,
      "normalized": false,
      "special": true
    },
    {
      "id": 180,
      "content": "<|reserved_special_token_172|>",
      "single_word": false,
      "lstrip": false,
      "rstrip": false,
      "normalized": false,
      "special": true
    },
    {
      "id": 181,
      "content": "<|reserved_special_token_173|>",
      "single_word": false,
      "lstrip": false,
      "rstrip": false,
      "normalized": false,
      "special": true
    },
    {
      "id": 182,
      "content": "<|reserved_special_token_174|>",
      "single_word": false,
      "lstrip": false,
      "rstrip": false,
      "normalized": false,
      "special": true
    },
    {
      "id": 183,
      "content": "<|reserved_special_token_175|>",
      "single_word": false,
      "lstrip": false,
      "rstrip": false,
      "normalized": false,
      "special": true
    },
    {
      "id": 184,
      "content": "<|reserved_special_token_176|>",
      "single_word": false,
      "lstrip": false,
      "rstrip": false,
      "normalized": false,
      "special": true
    },
    {
      "id": 185,
      "content": "<|reserved_special_token_177|>",
      "single_word": false,
      "lstrip": false,
      "rstrip": false,
      "normalized": false,
      "special": true
    },
    {
      "id": 186,
      "content": "<|reserved_special_token_178|>",
      "single_word": false,
      "lstrip": false,
      "rstrip": false,
      "normalized": false,
      "special": true
    },
    {
      "id": 187,
      "content": "<|reserved_special_token_179|>",
      "single_word": false,
      "lstrip": false,
      "rstrip": false,
      "normalized": false,
      "special": true
    },
    {
      "id": 188,
      "content": "<|reserved_special_token_180|>",
      "single_word": false,
      "lstrip": false,
      "rstrip": false,
      "normalized": false,
      "special": true
    },
    {
      "id": 189,
      "content": "<|reserved_special_token_181|>",
      "single_word": false,
      "lstrip": false,
      "rstrip": false,
      "normalized": false,
      "special": true
    },
    {
      "id": 190,
      "content": "<|reserved_special_token_182|>",
      "single_word": false,
      "lstrip": false,
      "rstrip": false,
      "normalized": false,
      "special": true
    },
    {
      "id": 191,
      "content": "<|reserved_special_token_183|>",
      "single_word": false,
      "lstrip": false,
      "rstrip": false,
      "normalized": false,
      "special": true
    },
    {
      "id": 192,
      "content": "<|reserved_special_token_184|>",
      "single_word": false,
      "lstrip": false,
      "rstrip": false,
      "normalized": false,
      "special": true
    },
    {
      "id": 193,
      "content": "<|reserved_special_token_185|>",
      "single_word": false,
      "lstrip": false,
      "rstrip": false,
      "normalized": false,
      "special": true
    },
    {
      "id": 194,
      "content": "<|reserved_special_token_186|>",
      "single_word": false,
      "lstrip": false,
      "rstrip": false,
      "normalized": false,
      "special": true
    },
    {
      "id": 195,
      "content": "<|reserved_special_token_187|>",
      "single_word": false,
      "lstrip": false,
      "rstrip": false,
      "normalized": false,
      "special": true
    },
    {
      "id": 196,
      "content": "<|reserved_special_token_188|>",
      "single_word": false,
      "lstrip": false,
      "rstrip": false,
      "normalized": false,
      "special": true
    },
    {
      "id": 197,
      "content": "<|reserved_special_token_189|>",
      "single_word": false,
      "lstrip": false,
      "rstrip": false,
      "normalized": false,
      "special": true
    },
    {
      "id": 198,
      "content": "<|reserved_special_token_190|>",
      "single_word": false,
      "lstrip": false,
      "rstrip": false,
      "normalized": false,
      "special": true
    },
    {
      "id": 199,
      "content": "<|reserved_special_token_191|>",
      "single_word": false,
      "lstrip": false,
      "rstrip": false,
      "normalized": false,
      "special": true
    },
    {
      "id": 200,
      "content": "<|reserved_special_token_192|>",
      "single_word": false,
      "lstrip": false,
      "rstrip": false,
      "normalized": false,
      "special": true
    },
    {
      "id": 201,
      "content": "<|reserved_special_token_193|>",
      "single_word": false,
      "lstrip": false,
      "rstrip": false,
      "normalized": false,
      "special": true
    },
    {
      "id": 202,
      "content": "<|reserved_special_token_194|>",
      "single_word": false,
      "lstrip": false,
      "rstrip": false,
      "normalized": false,
      "special": true
    },
    {
      "id": 203,
      "content": "<|reserved_special_token_195|>",
      "single_word": false,
      "lstrip": false,
      "rstrip": false,
      "normalized": false,
      "special": true
    },
    {
      "id": 204,
      "content": "<|reserved_special_token_196|>",
      "single_word": false,
      "lstrip": false,
      "rstrip": false,
      "normalized": false,
      "special": true
    },
    {
      "id": 205,
      "content": "<|reserved_special_token_197|>",
      "single_word": false,
      "lstrip": false,
      "rstrip": false,
      "normalized": false,
      "special": true
    },
    {
      "id": 206,
      "content": "<|reserved_special_token_198|>",
      "single_word": false,
      "lstrip": false,
      "rstrip": false,
      "normalized": false,
      "special": true
    },
    {
      "id": 207,
      "content": "<|reserved_special_token_199|>",
      "single_word": false,
      "lstrip": false,
      "rstrip": false,
      "normalized": false,
      "special": true
    },
    {
      "id": 208,
      "content": "<|reserved_special_token_200|>",
      "single_word": false,
      "lstrip": false,
      "rstrip": false,
      "normalized": false,
      "special": true
    },
    {
      "id": 209,
      "content": "<|reserved_special_token_201|>",
      "single_word": false,
      "lstrip": false,
      "rstrip": false,
      "normalized": false,
      "special": true
    },
    {
      "id": 210,
      "content": "<|reserved_special_token_202|>",
      "single_word": false,
      "lstrip": false,
      "rstrip": false,
      "normalized": false,
      "special": true
    },
    {
      "id": 211,
      "content": "<|reserved_special_token_203|>",
      "single_word": false,
      "lstrip": false,
      "rstrip": false,
      "normalized": false,
      "special": true
    },
    {
      "id": 212,
      "content": "<|reserved_special_token_204|>",
      "single_word": false,
      "lstrip": false,
      "rstrip": false,
      "normalized": false,
      "special": true
    },
    {
      "id": 213,
      "content": "<|reserved_special_token_205|>",
      "single_word": false,
      "lstrip": false,
      "rstrip": false,
      "normalized": false,
      "special": true
    },
    {
      "id": 214,
      "content": "<|reserved_special_token_206|>",
      "single_word": false,
      "lstrip": false,
      "rstrip": false,
      "normalized": false,
      "special": true
    },
    {
      "id": 215,
      "content": "<|reserved_special_token_207|>",
      "single_word": false,
      "lstrip": false,
      "rstrip": false,
      "normalized": false,
      "special": true
    },
    {
      "id": 216,
      "content": "<|reserved_special_token_208|>",
      "single_word": false,
      "lstrip": false,
      "rstrip": false,
      "normalized": false,
      "special": true
    },
    {
      "id": 217,
      "content": "<|reserved_special_token_209|>",
      "single_word": false,
      "lstrip": false,
      "rstrip": false,
      "normalized": false,
      "special": true
    },
    {
      "id": 218,
      "content": "<|reserved_special_token_210|>",
      "single_word": false,
      "lstrip": false,
      "rstrip": false,
      "normalized": false,
      "special": true
    },
    {
      "id": 219,
      "content": "<|reserved_special_token_211|>",
      "single_word": false,
      "lstrip": false,
      "rstrip": false,
      "normalized": false,
      "special": true
    },
    {
      "id": 220,
      "content": "<|reserved_special_token_212|>",
      "single_word": false,
      "lstrip": false,
      "rstrip": false,
      "normalized": false,
      "special": true
    },
    {
      "id": 221,
      "content": "<|reserved_special_token_213|>",
      "single_word": false,
      "lstrip": false,
      "rstrip": false,
      "normalized": false,
      "special": true
    },
    {
      "id": 222,
      "content": "<|reserved_special_token_214|>",
      "single_word": false,
      "lstrip": false,
      "rstrip": false,
      "normalized": false,
      "special": true
    },
    {
      "id": 223,
      "content": "<|reserved_special_token_215|>",
      "single_word": false,
      "lstrip": false,
      "rstrip": false,
      "normalized": false,
      "special": true
    },
    {
      "id": 224,
      "content": "<|reserved_special_token_216|>",
      "single_word": false,
      "lstrip": false,
      "rstrip": false,
      "normalized": false,
      "special": true
    },
    {
      "id": 225,
      "content": "<|reserved_special_token_217|>",
      "single_word": false,
      "lstrip": false,
      "rstrip": false,
      "normalized": false,
      "special": true
    },
    {
      "id": 226,
      "content": "<|reserved_special_token_218|>",
      "single_word": false,
      "lstrip": false,
      "rstrip": false,
      "normalized": false,
      "special": true
    },
    {
      "id": 227,
      "content": "<|reserved_special_token_219|>",
      "single_word": false,
      "lstrip": false,
      "rstrip": false,
      "normalized": false,
      "special": true
    },
    {
      "id": 228,
      "content": "<|reserved_special_token_220|>",
      "single_word": false,
      "lstrip": false,
      "rstrip": false,
      "normalized": false,
      "special": true
    },
    {
      "id": 229,
      "content": "<|reserved_special_token_221|>",
      "single_word": false,
      "lstrip": false,
      "rstrip": false,
      "normalized": false,
      "special": true
    },
    {
      "id": 230,
      "content": "<|reserved_special_token_222|>",
      "single_word": false,
      "lstrip": false,
      "rstrip": false,
      "normalized": false,
      "special": true
    },
    {
      "id": 231,
      "content": "<|reserved_special_token_223|>",
      "single_word": false,
      "lstrip": false,
      "rstrip": false,
      "normalized": false,
      "special": true
    },
    {
      "id": 232,
      "content": "<|reserved_special_token_224|>",
      "single_word": false,
      "lstrip": false,
      "rstrip": false,
      "normalized": false,
      "special": true
    },
    {
      "id": 233,
      "content": "<|reserved_special_token_225|>",
      "single_word": false,
      "lstrip": false,
      "rstrip": false,
      "normalized": false,
      "special": true
    },
    {
      "id": 234,
      "content": "<|reserved_special_token_226|>",
      "single_word": false,
      "lstrip": false,
      "rstrip": false,
      "normalized": false,
      "special": true
    },
    {
      "id": 235,
      "content": "<|reserved_special_token_227|>",
      "single_word": false,
      "lstrip": false,
      "rstrip": false,
      "normalized": false,
      "special": true
    },
    {
      "id": 236,
      "content": "<|reserved_special_token_228|>",
      "single_word": false,
      "lstrip": false,
      "rstrip": false,
      "normalized": false,
      "special": true
    },
    {
      "id": 237,
      "content": "<|reserved_special_token_229|>",
      "single_word": false,
      "lstrip": false,
      "rstrip": false,
      "normalized": false,
      "special": true
    },
    {
      "id": 238,
      "content": "<|reserved_special_token_230|>",
      "single_word": false,
      "lstrip": false,
      "rstrip": false,
      "normalized": false,
      "special": true
    },
    {
      "id": 239,
      "content": "<|reserved_special_token_231|>",
      "single_word": false,
      "lstrip": false,
      "rstrip": false,
      "normalized": false,
      "special": true
    },
    {
      "id": 240,
      "content": "<|reserved_special_token_232|>",
      "single_word": false,
      "lstrip": false,
      "rstrip": false,
      "normalized": false,
      "special": true
    },
    {
      "id": 241,
      "content": "<|reserved_special_token_233|>",
      "single_word": false,
      "lstrip": false,
      "rstrip": false,
      "normalized": false,
      "special": true
    },
    {
      "id": 242,
      "content": "<|reserved_special_token_234|>",
      "single_word": false,
      "lstrip": false,
      "rstrip": false,
      "normalized": false,
      "special": true
    },
    {
      "id": 243,
      "content": "<|reserved_special_token_235|>",
      "single_word": false,
      "lstrip": false,
      "rstrip": false,
      "normalized": false,
      "special": true
    },
    {
      "id": 244,
      "content": "<|reserved_special_token_236|>",
      "single_word": false,
      "lstrip": false,
      "rstrip": false,
      "normalized": false,
      "special": true
    },
    {
      "id": 245,
      "content": "<|reserved_special_token_237|>",
      "single_word": false,
      "lstrip": false,
      "rstrip": false,
      "normalized": false,
      "special": true
    },
    {
      "id": 246,
      "content": "<|reserved_special_token_238|>",
      "single_word": false,
      "lstrip": false,
      "rstrip": false,
      "normalized": false,
      "special": true
    },
    {
      "id": 247,
      "content": "<|reserved_special_token_239|>",
      "single_word": false,
      "lstrip": false,
      "rstrip": false,
      "normalized": false,
      "special": true
    },
    {
      "id": 248,
      "content": "<|reserved_special_token_240|>",
      "single_word": false,
      "lstrip": false,
      "rstrip": false,
      "normalized": false,
      "special": true
    },
    {
      "id": 249,
      "content": "<|reserved_special_token_241|>",
      "single_word": false,
      "lstrip": false,
      "rstrip": false,
      "normalized": false,
      "special": true
    },
    {
      "id": 250,
      "content": "<|reserved_special_token_242|>",
      "single_word": false,
      "lstrip": false,
      "rstrip": false,
      "normalized": false,
      "special": true
    },
    {
      "id": 251,
      "content": "<|reserved_special_token_243|>",
      "single_word": false,
      "lstrip": false,
      "rstrip": false,
      "normalized": false,
      "special": true
    },
    {
      "id": 252,
      "content": "<|reserved_special_token_244|>",
      "single_word": false,
      "lstrip": false,
      "rstrip": false,
      "normalized": false,
      "special": true
    },
    {
      "id": 253,
      "content": "<|reserved_special_token_245|>",
      "single_word": false,
      "lstrip": false,
      "rstrip": false,
      "normalized": false,
      "special": true
    },
    {
      "id": 254,
      "content": "<|reserved_special_token_246|>",
      "single_word": false,
      "lstrip": false,
      "rstrip": false,
      "normalized": false,
      "special": true
    },
    {
      "id": 255,
      "content": "<|reserved_special_token_247|>",
      "single_word": false,
      "lstrip": false,
      "rstrip": false,
      "normalized": false,
      "special": true
    }
  ],
  "normalizer": null,
  "pre_tokenizer": {
    "type": "Sequence",
    "pretokenizers": [
      {
        "type": "Split",
        "pattern": {
          "Regex": "(?i:'s|'t|'re|'ve|'m|'ll|'d)|[^\\r\\n\\p{L}\\p{N}]?\\p{L}+|\\p{N}{1,3}| ?[^\\s\\p{L}\\p{N}]+[\\r\\n]*|\\s*[\\r\\n]+|\\s+(?!\\S)|\\s+"
        },
        "behavior": "Isolated",
        "invert": false
      },
      {
        "type": "ByteLevel",
        "add_prefix_space": false,
        "trim_offsets": true,
        "use_regex": false
      }
    ]
  },
  "post_processor": {
    "type": "Sequence",
    "processors": [
      {
        "type": "ByteLevel",
        "add_prefix_space": true,
        "trim_offsets": false,
        "use_regex": true
      },
      {
        "type": "TemplateProcessing",
        "single": [
          {
            "SpecialToken": {
              "id": "<|begin_of_text|>",
              "type_id": 0
            }
          },
          {
            "Sequence": {
              "id": "A",
              "type_id": 0
            }
          }
        ],
        "pair": [
          {
            "SpecialToken": {
              "id": "<|begin_of_text|>",
              "type_id": 0
            }
          },
          {
            "Sequence": {
              "id": "A",
              "type_id": 0
            }
          },
          {
            "SpecialToken": {
              "id": "<|begin_of_text|>",
              "type_id": 1
            }
          },
          {
            "Sequence": {
              "id": "B",
              "type_id": 1
            }
          }
        ],
        "special_tokens": {
          "<|begin_of_text|>": {
            "id": "<|begin_of_text|>",
            "ids": [
              128000
            ],
            "tokens": [
              "<|begin_of_text|>"
            ]
          }
        }
      }
    ]
  },
  "decoder": {
    "type": "ByteLevel",
    "add_prefix_space": true,
    "trim_offsets": true,
    "use_regex": true
  },
  "model": {
    "type": "BPE",
    "dropout": null,
    "unk_token": null,
    "continuing_subword_prefix": null,
    "end_of_word_suffix": null,
    "fuse_unk": false,
    "byte_fallback": false,
    "ignore_merges": true,
    "vocab": {
      "<|begin_of_text|>": 0,
      "<|end_of_text|>": 1,
      "<|reserved_special_token_0|>": 2,
      "<|reserved_special_token_1|>": 3,
      "<|finetune_right_pad_id|>": 4,
      "<|reserved_special_token_2|>": 5,
      "<|start_header_id|>": 6,
      "<|end_header_id|>": 7,
      "<|eom_id|>": 8,
      "<|eot_id|>": 9,
      "<|python_tag|>": 10,
      "<|reserved_special_token_3|>": 11,
      "<|reserved_special_token_4|>": 12,
      "<|reserved_special_token_5|>": 13,
      "<|reserved_special_token_6|>": 14,
      "<|reserved_special_token_7|>": 15,
      "<|reserved_special_token_8|>": 16,
      "<|reserved_special_token_9|>": 17,
      "<|reserved_special_token_10|>": 18,
      "<|reserved_special_token_11|>": 19,
      "<|reserved_special_token_12|>": 20,
      "<|reserved_special_token_13|>": 21,
      "<|reserved_special_token_14|>": 22,
      "<|reserved_special_token_15|>": 23,
      "<|reserved_special_token_16|>": 24,
      "<|reserved_special_token_17|>": 25,
      "<|reserved_special_token_18|>": 26,
      "<|reserved_special_token_19|>": 27,
      "<|reserved_special_token_20|>": 28,
      "<|reserved_special_token_21|>": 29,
      "<|reserved_special_token_22|>": 30,
      "<|reserved_special_token_23|>": 31,
      "<|reserved_special_token_24|>": 32,
      "<|reserved_special_token_25|>": 33,
      "<|reserved_special_token_26|>": 34,
      "<|reserved_special_token_27|>": 35,
      "<|reserved_special_token_28|>": 36,
      "<|reserved_special_token_29|>": 37,
      "<|reserved_special_token_30|>": 38,
      "<|reserved_special_token_31|>": 39,
      "<|reserved_special_token_32|>": 40,
      "<|reserved_special_token_33|>": 41,
      "<|reserved_special_token_34|>": 42,
      "<|reserved_special_token_35|>": 43,
      "<|reserved_special_token_36|>": 44,
      "<|reserved_special_token_37|>": 45,
      "<|reserved_special_token_38|>": 46,
      "<|reserved_special_token_39|>": 47,
      "<|reserved_special_token_40|>": 48,
      "<|reserved_special_token_41|>": 49,
      "<|reserved_special_token_42|>": 50,
      "<|reserved_special_token_43|>": 51,
      "<|reserved_special_token_44|>": 52,
      "<|reserved_special_token_45|>": 53,
      "<|reserved_special_token_46|>": 54,
      "<|reserved_special_token_47|>": 55,
      "<|reserved_special_token_48|>": 56,
      "<|reserved_special_token_49|>": 57,
      "<|reserved_special_token_50|>": 58,
      "<|reserved_special_token_51|>": 59,
      "<|reserved_special_token_52|>": 60,
      "<|reserved_special_token_53|>": 61,
      "<|reserved_special_token_54|>": 62,
      "<|reserved_special_token_55|>": 63,
      "<|reserved_special_token_56|>": 64,
      "<|reserved_special_token_57|>": 65,
      "<|reserved_special_token_58|>": 66,
      "<|reserved_special_token_59|>": 67,
      "<|reserved_special_token_60|>": 68,
      "<|reserved_special_token_61|>": 69,
      "<|reserved_special_token_62|>": 70,
      "<|reserved_special_token_63|>": 71,
      "<|reserved_special_token_64|>": 72,
      "<|reserved_special_token_65|>": 73,
      "<|reserved_special_token_66|>": 74,
      "<|reserved_special_token_67|>": 75,
      "<|reserved_special_token_68|>": 76,
      "<|reserved_special_token_69|>": 77,
      "<|reserved_special_token_70|>": 78,
      "<|reserved_special_token_71|>": 79,
      "<|reserved_special_token_72|>": 80,
      "<|reserved_special_token_73|>": 81,
      "<|reserved_special_token_74|>": 82,
      "<|reserved_special_token_75|>": 83,
      "<|reserved_special_token_76|>": 84,
      "<|reserved_special_token_77|>": 85,
      "<|reserved_special_token_78|>": 86,
      "<|reserved_special_token_79|>": 87,
      "<|reserved_special_token_80|>": 88,
      "<|reserved_special_token_81|>": 89,
      "<|reserved_special_token_82|>": 90,
      "<|reserved_special_token_83|>": 91,
      "<|reserved_special_token_84|>": 92,
      "<|reserved_special_token_85|>": 93,
      "<|reserved_special_token_86|>": 94,
      "<|reserved_special_token_87|>": 95,
      "<|reserved_special_token_88|>": 96,
      "<|reserved_special_token_89|>": 97,
      "<|reserved_special_token_90|>": 98,
      "<|reserved_special_token_91|>": 99,
      "<|reserved_special_token_92|>": 100,
      "<|reserved_special_token_93|>": 101,
      "<|reserved_special_token_94|>": 102,
      "<|reserved_special_token_95|>": 103,
      "<|reserved_special_token_96|>": 104,
      "<|reserved_special_token_97|>": 105,
      "<|reserved_special_token_98|>": 106,
      "<|reserved_special_token_99|>": 107,
      "<|reserved_special_token_100|>": 108,
      "<|reserved_special_token_101|>": 109,
      "<|reserved_special_token_102|>": 110,
      "<|reserved_special_token_103|>": 111,
      "<|reserved_special_token_104|>": 112,
      "<|reserved_special_token_105|>": 113,
      "<|reserved_special_token_106|>": 114,
      "<|reserved_special_token_107|>": 115,
      "<|reserved_special_token_108|>": 116,
      "<|reserved_special_token_109|>": 117,
      "<|reserved_special_token_110|>": 118,
      "<|reserved_special_token_111|>": 119,
      "<|reserved_special_token_112|>": 120,
      "<|reserved_special_token_113|>": 121,
      "<|reserved_special_token_114|>": 122,
      "<|reserved_special_token_115|>": 123,
      "<|reserved_special_token_116|>": 124,
      "<|reserved_special_token_117|>": 125,
      "<|reserved_special_token_118|>": 126,
      "<|reserved_special_token_119|>": 127,
      "<|reserved_special_token_120|>": 128,
      "<|reserved_special_token_121|>": 129,
      "<|reserved_special_token_122|>": 130,
      "<|reserved_special_token_123|>": 131,
      "<|reserved_special_token_124|>": 132,
      "<|reserved_special_token_125|>": 133,
      "<|reserved_special_token_126|>": 134,
      "<|reserved_special_token_127|>": 135,
      "<|reserved_special_token_128|>": 136,
      "<|reserved_special_token_129|>": 137,
      "<|reserved_special_token_130|>": 138,
      "<|reserved_special_token_131|>": 139,
      "<|reserved_special_token_132|>": 140,
      "<|reserved_special_token_133|>": 141,
      "<|reserved_special_token_134|>": 142,
      "<|reserved_special_token_135|>": 143,
      "<|reserved_special_token_136|>": 144,
      "<|reserved_special_token_137|>": 145,
      "<|reserved_special_token_138|>": 146,
      "<|reserved_special_token_139|>": 147,
      "<|reserved_special_token_140|>": 148,
      "<|reserved_special_token_141|>": 149,
      "<|reserved_special_token_142|>": 150,
      "<|reserved_special_token_143|>": 151,
      "<|reserved_special_token_144|>": 152,
      "<|reserved_special_token_145|>": 153,
      "<|reserved_special_token_146|>": 154,
      "<|reserved_special_token_147|>": 155,
      "<|reserved_special_token_148|>": 156,
      "<|reserved_special_token_149|>": 157,
      "<|reserved_special_token_150|>": 158,
      "<|reserved_special_token_151|>": 159,
      "<|reserved_special_token_152|>": 160,
      "<|reserved_special_token_153|>": 161,
      "<|reserved_special_token_154|>": 162,
      "<|reserved_special_token_155|>": 163,
      "<|reserved_special_token_156|>": 164,
      "<|reserved_special_token_157|>": 165,
      "<|reserved_special_token_158|>": 166,
      "<|reserved_special_token_159|>": 167,
      "<|reserved_special_token_160|>": 168,
      "<|reserved_special_token_161|>": 169,
      "<|reserved_special_token_162|>": 170,
      "<|reserved_special_token_163|>": 171,
      "<|reserved_special_token_164|>": 172,
      "<|reserved_special_token_165|>": 173,
      "<|reserved_special_token_166|>": 174,
      "<|reserved_special_token_167|>": 175,
      "<|reserved_special_token_168|>": 176,
      "<|reserved_special_token_169|>": 177,
      "<|reserved_special_token_170|>": 178,
      "<|reserved_special_token_171|>": 179,
      "<|reserved_special_token_172|>": 180,
      "<|reserved_special_token_173|>": 181,
      "<|reserved_special_token_174|>": 182,
      "<|reserved_special_token_175|>": 183,
      "<|reserved_special_token_176|>": 184,
      "<|reserved_special_token_177|>": 185,
      "<|reserved_special_token_178|>": 186,
      "<|reserved_special_token_179|>": 187,
      "<|reserved_special_token_180|>": 188,
      "<|reserved_special_token_181|>": 189,
      "<|reserved_special_token_182|>": 190,
      "<|reserved_special_token_183|>": 191,
      "<|reserved_special_token_184|>": 192,
      "<|reserved_special_token_185|>": 193,
      "<|reserved_special_token_186|>": 194,
      "<|reserved_special_token_187|>": 195,
      "<|reserved_special_token_188|>": 196,
      "<|reserved_special_token_189|>": 197,
      "<|reserved_special_token_190|>": 198,
      "<|reserved_special_token_191|>": 199,
      "<|reserved_special_token_192|>": 200,
      "<|reserved_special_token_193|>": 201,
      "<|reserved_special_token_194|>": 202,
      "<|reserved_special_token_195|>": 203,
      "<|reserved_special_token_196|>": 204,
      "<|reserved_special_token_197|>": 205,
      "<|reserved_special_token_198|>": 206,
      "<|reserved_special_token_199|>": 207,
      "<|reserved_special_token_200|>": 208,
      "<|reserved_special_token_201|>": 209,
      "<|reserved_special_token_202|>": 210,
      "<|reserved_special_token_203|>": 211,
      "<|reserved_special_token_204|>": 212,
      "<|reserved_special_token_205|>": 213,
      "<|reserved_special_token_206|>": 214,
      "<|reserved_special_token_207|>": 215,
      "<|reserved_special_token_208|>": 216,
      "<|reserved_special_token_209|>": 217,
      "<|reserved_special_token_210|>": 218,
      "<|reserved_special_token_211|>": 219,
      "<|reserved_special_token_212|>": 220,
      "<|reserved_special_token_213|>": 221,
      "<|reserved_special_token_214|>": 222,
      "<|reserved_special_token_215|>": 223,
      "<|reserved_special_token_216|>": 224,
      "<|reserved_special_token_217|>": 225,
      "<|reserved_special_token_218|>": 226,
      "<|reserved_special_token_219|>": 227,
      "<|reserved_special_token_220|>": 228,
      "<|reserved_special_token_221|>": 229,
      "<|reserved_special_token_222|>": 230,
      "<|reserved_special_token_223|>": 231,
      "<|reserved_special_token_224|>": 232,
      "<|reserved_special_token_225|>": 233,
      "<|reserved_special_token_226|>": 234,
      "<|reserved_special_token_227|>": 235,
      "<|reserved_special_token_228|>": 236,
      "<|reserved_special_token_229|>": 237,
      "<|reserved_special_token_230|>": 238,
      "<|reserved_special_token_231|>": 239,
      "<|reserved_special_token_232|>": 240,
      "<|reserved_special_token_233|>": 241,
      "<|reserved_special_token_234|>": 242,
      "<|reserved_special_token_235|>": 243,
      "<|reserved_special_token_236|>": 244,
      "<|reserved_special_token_237|>": 245,
      "<|reserved_special_token_238|>": 246,
      "<|reserved_special_token_239|>": 247,
      "<|reserved_special_token_240|>": 248,
      "<|reserved_special_token_241|>": 249,
      "<|reserved_special_token_242|>": 250,
      "<|reserved_special_token_243|>": 251,
      "<|reserved_special_token_244|>": 252,
      "<|reserved_special_token_245|>": 253,
      "<|reserved_special_token_246|>": 254,
      "<|reserved_special_token_247|>": 255,
      "!": 256,
      "\"": 257,
      "#": 258,
      "$": 259,
      "%": 260,
      "&": 261,
      "'": 262,
      "(": 263,
      ")": 264,
      "*": 265,
      "+": 266,
      ",": 267,
      "-": 268,
      ".": 269,
      "/": 270,
      "0": 271,
      "1": 272,
      "2": 273,
      "3": 274,
      "4": 275,
      "5": 276,
      "6": 277,
      "7": 278,
      "8": 279,
      "9": 280,
      ":": 281,
      ";": 282,
      "<": 283,
      "=": 284,
      ">": 285,
      "?": 286,
      "@": 287,
      "A": 288,
      "B": 289,
      "C": 290,
      "D": 291,
      "E": 292,
      "F": 293,
      "G": 294,
      "H": 295,
      "I": 296,
      "J": 297,
      "K": 298,
      "L": 299,
      "M": 300,
      "N": 301,
      "O": 302,
      "P": 303,
      "Q": 304,
      "R": 305,
      "S": 306,
      "T": 307,
      "U": 308,
      "V": 309,
      "W": 310,
      "X": 311,
      "Y": 312,
      "Z": 313,
      "[": 314,
      "\\": 315,
      "]": 316,
      "^": 317,
      "_": 318,
      "`": 319,
      "a": 320,
      "b": 321,
      "c": 322,
      "d": 323,
      "e": 324,
      "f": 325,
      "g": 326,
      "h": 327,
      "i": 328,
      "j": 329,
      "k": 330,
      "l": 331,
      "m": 332,
      "n": 333,
      "o": 334,
      "p": 335,
      "q": 336,
      "r": 337,
      "s": 338,
      "t": 339,
      "u": 340,
      "v": 341,
      "w": 342,
      "x": 343,
      "y": 344,
      "z": 345,
      "{": 346,
      "|": 347,
      "}": 348,
      "~": 349,
      "¡": 350,
      "¢": 351,
      "£": 352,
      "¤": 353,
      "¥": 354,
      "¦": 355,
      "§": 356,
      "¨": 357,
      "©": 358,
      "ª": 359,
      "«": 360,
      "¬": 361,
      "®": 362,
      "¯": 363,
      "°": 364,
      "±": 365,
      "²": 366,
      "³": 367,
      "´": 368,
      "µ": 369,
      "¶": 370,
      "·": 371,
      "¸": 372,
      "¹": 373,
      "º": 374,
      "»": 375,
      "¼": 376,
      "½": 377,
      "¾": 378,
      "¿": 379,
      "À": 380,
      "Á": 381,
      "Â": 382,
      "Ã": 383,
      "Ä": 384,
      "Å": 385,
      "Æ": 386,
      "Ç": 387,
      "È": 388,
      "É": 389,
      "Ê": 390,
      "Ë": 391,
      "Ì": 392,
      "Í": 393,
      "Î": 394,
      "Ï": 395,
      "Ð": 396,
      "Ñ": 397,
      "Ò": 398,
      "Ó": 399,
      "Ô": 400,
      "Õ": 401,
      "Ö": 402,
      "×": 403,
      "Ø": 404,
      "Ù": 405,
      "Ú": 406,
      "Û": 407,
      "Ü": 408,
      "Ý": 409,
      "Þ": 410,
      "ß": 411,
      "à": 412,
      "á": 413,
      "â": 414,
      "ã": 415,
      "ä": 416,
      "å": 417,
      "æ": 418,
      "ç": 419,
      "è": 420,
      "é": 421,
      "ê": 422,
      "ë": 423,
      "ì": 424,
      "í": 425,
      "î": 426,
      "ï": 427,
      "ð": 428,
      "ñ": 429,
      "ò": 430,
      "ó": 431,
      "ô": 432,
      "õ": 433,
      "ö": 434,
      "÷": 435,
      "ø": 436,
      "ù": 437,
      "ú": 438,
      "û": 439,
      "ü": 440,
      "ý": 441,
      "þ": 442,
      "ÿ": 443,
      "Ā": 444,
      "ā": 445,
      "Ă": 446,
      "ă": 447,
      "Ą": 448,
      "ą": 449,
      "Ć": 450,
      "ć": 451,
      "Ĉ": 452,
      "ĉ": 453,
      "Ċ": 454,
      "ċ": 455,
      "Č": 456,
      "č": 457,
      "Ď": 458,
      "ď": 459,
      "Đ": 460,
      "đ": 461,
      "Ē": 462,
      "ē": 463,
      "Ĕ": 464,
      "ĕ": 465,
      "Ė": 466,
      "ė": 467,
      "Ę": 468,
      "ę": 469,
      "Ě": 470,
      "ě": 471,
      "Ĝ": 472,
      "ĝ": 473,
      "Ğ": 474,
      "ğ": 475,
      "Ġ": 476,
      "ġ": 477,
      "Ģ": 478,
      "ģ": 479,
      "Ĥ": 480,
      "ĥ": 481,
      "Ħ": 482,
      "ħ": 483,
      "Ĩ": 484,
      "ĩ": 485,
      "Ī": 486,
      "ī": 487,
      "Ĭ": 488,
      "ĭ": 489,
      "Į": 490,
      "į": 491,
      "İ": 492,
      "ı": 493,
      "Ĳ": 494,
      "ĳ": 495,
      "Ĵ": 496,
      "ĵ": 497,
      "Ķ": 498,
      "ķ": 499,
      "ĸ": 500,
      "Ĺ": 501,
      "ĺ": 502,
      "Ļ": 503,
      "ļ": 504,
      "Ľ": 505,
      "ľ": 506,
      "Ŀ": 507,
      "ŀ": 508,
      "Ł": 509,
      "ł": 510,
      "Ń": 511,
      "Ġt": 512,
      "in": 513,
      "Ġa": 514,
      "ĠĠ": 515,
      "Ġth": 516,
      "er": 517,
      "``": 518,
      "Ġs": 519,
      "Ġc": 520,
      "ĊĊ": 521,
      "on": 522,
      "re": 523,
      "Ġi": 524,
      "Ġthe": 525,
      "at": 526,
      "Ġw": 527,
      "or": 528,
      "ou": 529,
      "Ġf": 530,
      "le": 531,
      "ing": 532,
      "Ġp": 533,
      "an": 534,
      "st": 535,
      "Ġto": 536,
      "en": 537,
      "ar": 538,
      "int": 539,
      "Ġb": 540,
      "```": 541,
      "de": 542,
      "Ġm": 543,
      "ed": 544,
      ";Ċ": 545,
      "al": 546,
      "Ġan": 547,
      "it": 548,
      "Ġo": 549,
      "ion": 550,
      "ct": 551,
      "Ġn": 552,
      "Ġin": 553,
      "ĠI": 554,
      "es": 555,
      "is": 556,
      "ĠĠĠ": 557,
      "Ġis": 558,
      "Ġd": 559,
      "om": 560,
      "Ġh": 561,
      "```Ċ": 562,
      "Ġl": 563,
      "Ġu": 564,
      "se": 565,
      "Ġre": 566,
      "Ġof": 567,
      "ow": 568,
      "Ġy": 569,
      "Ġit": 570,
      "Ġe": 571,
      "ĠĠĠĠ": 572,
      "ut": 573,
      "et": 574,
      "Ġpr": 575,
      "ll": 576,
      "ch": 577,
      "Ġ=": 578,
      "Ġst": 579,
      "Ġyou": 580,
      "am": 581,
      ".ĊĊ": 582,
      "Ġ(": 583,
      "Ġand": 584,
      "ve": 585,
      "ot": 586,
      "ent": 587,
      "Ġbe": 588,
      "ly": 589,
      ".Ċ": 590,
      "ay": 591,
      "Ġwh": 592,
      "un": 593,
      "Ġg": 594,
      "Th": 595,
      ");Ċ": 596,
      "```ĊĊ": 597,
      "as": 598,
      "ile": 599,
      "Ġthis": 600,
      "Ġthat": 601,
      "Ġv": 602,
      "ad": 603,
      "Ġfor": 604,
      "ld": 605,
      "ble": 606,
      "ic": 607,
      "ĠC": 608,
      "ere": 609,
      "Ġon": 610,
      ":ĊĊ": 611,
      "oc": 612,
      "ith": 613,
      "Ġint": 614,
      "ue": 615,
      "ce": 616,
      "Ġch": 617,
      "Ġ*": 618,
      "ur": 619,
      "Ġdo": 620,
      "em": 621,
      "ode": 622,
      "um": 623,
      "Ġcan": 624,
      "and": 625,
      "ig": 626,
      "Ġex": 627,
      "ke": 628,
      "pe": 629,
      "{Ċ": 630,
      "Ġha": 631,
      "ction": 632,
      "th": 633,
      "Ġas": 634,
      "Ġde": 635,
      "Ġpro": 636,
      "im": 637,
      "Ġnot": 638,
      "Ġstr": 639,
      "Ġwith": 640,
      "id": 641,
      "Ġcom": 642,
      "if": 643,
      "ers": 644,
      "Ġar": 645,
      "Ġpo": 646,
      "cl": 647,
      "ould": 648,
      "Ġli": 649,
      "Ġ\"": 650,
      "Ġus": 651,
      "out": 652,
      "Ġma": 653,
      "Ġhave": 654,
      ")Ċ": 655,
      "ation": 656,
      "}Ċ": 657,
      "unction": 658,
      "iz": 659,
      "(\"": 660,
      "oo": 661,
      "intf": 662,
      "Ġcon": 663,
      "Ġne": 664,
      "00": 665,
      "Ġcode": 666,
      "\",": 667,
      "str": 668,
      "ver": 669,
      "pr": 670,
      "ple": 671,
      "ss": 672,
      "all": 673,
      "Ġchar": 674,
      "ant": 675,
      "il": 676,
      "urn": 677,
      "Ġfunction": 678,
      "ine": 679,
      "Ġr": 680,
      "Ġif": 681,
      "Ġfile": 682,
      "'t": 683,
      "ate": 684,
      "pt": 685,
      "ray": 686,
      "ge": 687,
      "turn": 688,
      "Ġuse": 689,
      "?Ċ": 690,
      "nt": 691,
      "ize": 692,
      "..": 693,
      "Ġor": 694,
      "ul": 695,
      "()": 696,
      "Ġ-": 697,
      "ill": 698,
      "Ġpoint": 699,
      "ame": 700,
      "Ġse": 701,
      "Ġbut": 702,
      "The": 703,
      "able": 704,
      "Ġare": 705,
      "Ġsom": 706,
      "ĠĠĠĠĠĠĠ": 707,
      "uct": 708,
      "++": 709,
      "Ġval": 710,
      "Ġcomp": 711,
      "ess": 712,
      "gr": 713,
      "lo": 714,
      "Ġreturn": 715,
      ".h": 716,
      "clu": 717,
      "Ġ<": 718,
      "//": 719,
      "Ġby": 720,
      "pp": 721,
      "'s": 722,
      "char": 723,
      "Ġtr": 724,
      "Ġsh": 725,
      "clude": 726,
      "ore": 727,
      "ment": 728,
      "rom": 729,
      "fer": 730,
      ";ĊĊ": 731,
      "Wh": 732,
      "Ġget": 733,
      "put": 734,
      "Ġq": 735,
      "gram": 736,
      "ype": 737,
      "ck": 738,
      "ign": 739,
      "nd": 740,
      "Ġlike": 741,
      "Ġso": 742,
      "Ġarray": 743,
      "Ġmy": 744,
      "Ġal": 745,
      "ĠS": 746,
      "ĠA": 747,
      "Ġany": 748,
      "ich": 749,
      "ind": 750,
      "ex": 751,
      "Ġwant": 752,
      "Ġsu": 753,
      "ir": 754,
      "Ġprintf": 755,
      "oid": 756,
      "You": 757,
      "Ġwor": 758,
      "Ġ{Ċ": 759,
      "Ġthere": 760,
      "Ġprogram": 761,
      "Ġk": 762,
      "for": 763,
      "Ġusing": 764,
      "def": 765,
      "Ġfrom": 766,
      "uest": 767,
      "Ġwr": 768,
      "Ġam": 769,
      "Ġall": 770,
      "ter": 771,
      "Ġneed": 772,
      "include": 773,
      "ally": 774,
      "?ĊĊ": 775,
      "Ġad": 776,
      "ari": 777,
      "Ġwill": 778,
      "err": 779,
      "cc": 780,
      "Ġyour": 781,
      "act": 782,
      "ult": 783,
      "uestion": 784,
      "end": 785,
      "ust": 786,
      "This": 787,
      "Ġout": 788,
      "ks": 789,
      "Ġj": 790,
      "li": 791,
      "Ġme": 792,
      "Ġquestion": 793,
      "10": 794,
      "ect": 795,
      "Ġsome": 796,
      "Ġvalue": 797,
      "read": 798,
      "ain": 799,
      "ht": 800,
      "#include": 801,
      "are": 802,
      "Ġnum": 803,
      "el": 804,
      "of": 805,
      "Ġstring": 806,
      "tr": 807,
      "pl": 808,
      "Ġdoes": 809,
      "std": 810,
      "Ġle": 811,
      "Ġmain": 812,
      "Ġwhich": 813,
      "void": 814,
      "(\"%": 815,
      "us": 816,
      "op": 817,
      "con": 818,
      "age": 819,
      "sign": 820,
      "Ġpointer": 821,
      "ber": 822,
      "ime": 823,
      "ory": 824,
      "eth": 825,
      "error": 826,
      "ol": 827,
      "ase": 828,
      "Ġ&": 829,
      "Ġway": 830,
      "Ġat": 831,
      "Ġhow": 832,
      "sw": 833,
      "Ġun": 834,
      "ata": 835,
      "ĠĠĠĠĠĠĠĠ": 836,
      "Ġ'": 837,
      "_t": 838,
      "'m": 839,
      "iv": 840,
      "Ġwhat": 841,
      "ress": 842,
      "now": 843,
      "ary": 844,
      "od": 845,
      "Ġwould": 846,
      "How": 847,
      "ead": 848,
      "ort": 849,
      "uf": 850,
      "Ġ%": 851,
      "printf": 852,
      "Ġstruct": 853,
      "ite": 854,
      "Ġmem": 855,
      "Ġloo": 856,
      "Ġadd": 857,
      "ĠN": 858,
      "Ġsize": 859,
      "ample": 860,
      "Ġ//": 861,
      "Ġknow": 862,
      "ell": 863,
      "ariable": 864,
      "so": 865,
      "Ġtype": 866,
      "Ġansw": 867,
      "ive": 868,
      "art": 869,
      "ure": 870,
      "Ġwhen": 871,
      "Ġone": 872,
      "ack": 873,
      "io": 874,
      "Ġshould": 875,
      "\\n": 876,
      "Ġhas": 877,
      "wh": 878,
      "ong": 879,
      "ated": 880,
      "Ġread": 881,
      ".c": 882,
      "cr": 883,
      "Ġerror": 884,
      "oll": 885,
      "Ġop": 886,
      "king": 887,
      "our": 888,
      "ire": 889,
      "Ġx": 890,
      "Ġcall": 891,
      "ard": 892,
      "Ġthen": 893,
      "Ġvariable": 894,
      "Ġdon": 895,
      "Ġim": 896,
      "Ġjust": 897,
      "can": 898,
      "qu": 899,
      "Ġlib": 900,
      "ide": 901,
      "sed": 902,
      "Ġab": 903,
      "ĠP": 904,
      "Ġtry": 905,
      "ĠM": 906,
      "est": 907,
      "ĠO": 908,
      "Ġres": 909,
      "Ġcompil": 910,
      "In": 911,
      "ast": 912,
      "ec": 913,
      "Ġdef": 914,
      "ollow": 915,
      "Ġ+": 916,
      "ther": 917,
      "Ġprint": 918,
      "ject": 919,
      "Ġmemory": 920,
      "LL": 921,
      "Ġonly": 922,
      "ag": 923,
      "Ġfollow": 924,
      "Ġsy": 925,
      "Ġarg": 926,
      "ocess": 927,
      "ĠB": 928,
      "ial": 929,
      "ĠĊ": 930,
      "Ġnumber": 931,
      "irst": 932,
      "Ġrun": 933,
      "Ġ}Ċ": 934,
      "--": 935,
      "Ġexample": 936,
      "ĠF": 937,
      "to": 938,
      "struct": 939,
      "ap": 940,
      "ab": 941,
      "signed": 942,
      "ace": 943,
      "What": 944,
      "ight": 945,
      "ink": 946,
      "eg": 947,
      "pec": 948,
      "use": 949,
      "alloc": 950,
      "Ġhere": 951,
      "ence": 952,
      "Ġdata": 953,
      "11": 954,
      "Ġsame": 955,
      "\");Ċ": 956,
      "val": 957,
      ">Ċ": 958,
      "Ġno": 959,
      "size": 960,
      "ĠL": 961,
      "Ġbit": 962,
      "Ġ{": 963,
      "Ġcharact": 964,
      "get": 965,
      "oth": 966,
      ");": 967,
      "];Ċ": 968,
      "ock": 969,
      "Ġother": 970,
      "ument": 971,
      "ang": 972,
      "ined": 973,
      "ething": 974,
      "Ġpre": 975,
      "ible": 976,
      "Ġdif": 977,
      "stdio": 978,
      "blem": 979,
      "Ġfollowing": 980,
      "ĠThe": 981,
      "canf": 982,
      "ext": 983,
      "Ġlibr": 984,
      "ach": 985,
      "Ġline": 986,
      "If": 987,
      "ass": 988,
      "Ġsim": 989,
      "av": 990,
      "Ġoutput": 991,
      "32": 992,
      ");ĊĊ": 993,
      "Ġwas": 994,
      "Ġproblem": 995,
      "ause": 996,
      "ning": 997,
      "[i": 998,
      "ound": 999,
      "ove": 1000,
      "ition": 1001,
      "(int": 1002,
      "form": 1003,
      "Ġfirst": 1004,
      "stem": 1005,
      "000": 1006,
      "ULL": 1007,
      "Ġwork": 1008,
      "->": 1009,
      "),": 1010,
      "Ġtime": 1011,
      "Ġanswers": 1012,
      "Ġ/": 1013,
      "ist": 1014,
      "lib": 1015,
      "ĠD": 1016,
      "ff": 1017,
      "oug": 1018,
      "ows": 1019,
      "Ġdiffer": 1020,
      "one": 1021,
      "ars": 1022,
      "elp": 1023,
      "file": 1024,
      "ĠIt": 1025,
      "Ġ==": 1026,
      "po": 1027,
      "Ġcre": 1028,
      "ix": 1029,
      "pecif": 1030,
      "com": 1031,
      "te": 1032,
      "ĠG": 1033,
      "ĠW": 1034,
      "losed": 1035,
      "ie": 1036,
      "Ġsomething": 1037,
      "Ġapp": 1038,
      "Ġag": 1039,
      "12": 1040,
      "Ġcompiler": 1041,
      "Is": 1042,
      "Ġtrying": 1043,
      "...": 1044,
      "ĠE": 1045,
      "Ġused": 1046,
      "Ġstat": 1047,
      "Ġset": 1048,
      "eck": 1049,
      "Ġprocess": 1050,
      "Than": 1051,
      "ree": 1052,
      "Closed": 1053,
      "Ġinto": 1054,
      "Ġmake": 1055,
      "Ġhelp": 1056,
      "ount": 1057,
      "Ġcompile": 1058,
      "ath": 1059,
      "ied": 1060,
      "Ġoper": 1061,
      "Ġtw": 1062,
      "Ġresult": 1063,
      "Ġfind": 1064,
      "ouble": 1065,
      "100": 1066,
      "uffer": 1067,
      "Ġcomm": 1068,
      "Ġmore": 1069,
      "Ġcont": 1070,
      "Ġaddress": 1071,
      "ail": 1072,
      "Ġwrite": 1073,
      "Ġinteg": 1074,
      "Ġen": 1075,
      "Ġinput": 1076,
      "Ġcould": 1077,
      "fter": 1078,
      "It": 1079,
      "urre": 1080,
      "ough": 1081,
      "Ġinst": 1082,
      "ting": 1083,
      "__": 1084,
      "loat": 1085,
      "[]": 1086,
      "Ġnew": 1087,
      "ĠT": 1088,
      "Ġspecif": 1089,
      "ange": 1090,
      "Ġdecl": 1091,
      "ssible": 1092,
      "nder": 1093,
      "define": 1094,
      "Ġabout": 1095,
      "Ġtwo": 1096,
      "Ġthan": 1097,
      "IN": 1098,
      ">ĊĊ": 1099,
      "ux": 1100,
      "ues": 1101,
      "()Ċ": 1102,
      "urrent": 1103,
      "arg": 1104,
      "Ġwhy": 1105,
      "ator": 1106,
      "bject": 1107,
      "Ġlibrary": 1108,
      "name": 1109,
      "âĢ": 1110,
      "Ġunder": 1111,
      "Ġthem": 1112,
      "Ġwe": 1113,
      "Ġpl": 1114,
      "inux": 1115,
      "Ġalso": 1116,
      "ĠĠĠĠĠ": 1117,
      "Ġye": 1118,
      "Ġloop": 1119,
      "cond": 1120,
      "ays": 1121,
      "ource": 1122,
      "ake": 1123,
      "itial": 1124,
      "ost": 1125,
      ").": 1126,
      "fore": 1127,
      "Ġcase": 1128,
      "low": 1129,
      "Ġbet": 1130,
      "ecut": 1131,
      "ac": 1132,
      "ĠU": 1133,
      "irect": 1134,
      "Ġexp": 1135,
      "plement": 1136,
      "ded": 1137,
      "orre": 1138,
      "Ġmean": 1139,
      "Ġwrit": 1140,
      "Ġcheck": 1141,
      "Ġsystem": 1142,
      "erm": 1143,
      "ak": 1144,
      "}ĊĊ": 1145,
      "Ġman": 1146,
      "LE": 1147,
      "ib": 1148,
      "20": 1149,
      "Ġ:": 1150,
      "Thanks": 1151,
      "Ġconst": 1152,
      "Ġform": 1153,
      "tp": 1154,
      "not": 1155,
      "Ġargument": 1156,
      "ever": 1157,
      "Ġits": 1158,
      "ip": 1159,
      "#define": 1160,
      "string": 1161,
      "ically": 1162,
      "Ġwhile": 1163,
      "Ġago": 1164,
      "type": 1165,
      "ĠYou": 1166,
      "ro": 1167,
      "ual": 1168,
      "ild": 1169,
      "ep": 1170,
      "Ġyears": 1171,
      "Ġcharacter": 1172,
      "Ġfunctions": 1173,
      "andard": 1174,
      "ready": 1175,
      "cro": 1176,
      "Ġup": 1177,
      "ccess": 1178,
      "Ġpossible": 1179,
      "Ġsee": 1180,
      "Ġalloc": 1181,
      "Ġ.": 1182,
      "ptr": 1183,
      "ption": 1184,
      "led": 1185,
      "sizeof": 1186,
      "Ġexecut": 1187,
      "ĠIf": 1188,
      "Ġname": 1189,
      "der": 1190,
      "Ġalready": 1191,
      "ice": 1192,
      "Ġinteger": 1193,
      "yp": 1194,
      "ity": 1195,
      "ĠNULL": 1196,
      "Ġbec": 1197,
      "Ġcl": 1198,
      "Ġ|": 1199,
      "ens": 1200,
      "ations": 1201,
      "ose": 1202,
      "));Ċ": 1203,
      "cre": 1204,
      "Ġfiles": 1205,
      "ĠThis": 1206,
      "ener": 1207,
      "lement": 1208,
      "pect": 1209,
      "Ġbecause": 1210,
      "Ġcurrent": 1211,
      "://": 1212,
      "64": 1213,
      "Ġgiv": 1214,
      "Ġwhere": 1215,
      "Ġpar": 1216,
      "mp": 1217,
      "When": 1218,
      "!=": 1219,
      "Ġimplement": 1220,
      "len": 1221,
      "ĠHow": 1222,
      "Ġvalues": 1223,
      "Ġdoesn": 1224,
      "Ġtest": 1225,
      "xt": 1226,
      "res": 1227,
      "indows": 1228,
      "tes": 1229,
      "ĠR": 1230,
      "Ġdifferent": 1231,
      "ull": 1232,
      "ually": 1233,
      "ĠTh": 1234,
      "Ġcorre": 1235,
      "Ġlong": 1236,
      "ance": 1237,
      "Ġafter": 1238,
      "Ġsizeof": 1239,
      "Ġgo": 1240,
      "ord": 1241,
      "lic": 1242,
      "){Ċ": 1243,
      "Ġcommand": 1244,
      "};Ċ": 1245,
      "Ġend": 1246,
      "ert": 1247,
      "Ġpart": 1248,
      "http": 1249,
      "stand": 1250,
      "ern": 1251,
      "Ġthey": 1252,
      "16": 1253,
      "Ġover": 1254,
      "ug": 1255,
      "ince": 1256,
      "Ġhead": 1257,
      "Ġinitial": 1258,
      "ersion": 1259,
      "ven": 1260,
      "set": 1261,
      "Ġpass": 1262,
      ")ĊĊ": 1263,
      "Ġstandard": 1264,
      "So": 1265,
      "Ġeach": 1266,
      "open": 1267,
      "ello": 1268,
      "Ġcal": 1269,
      "Ġlist": 1270,
      "Ġanswer": 1271,
      "my": 1272,
      "lease": 1273,
      "line": 1274,
      "array": 1275,
      "ous": 1276,
      "Ġbeh": 1277,
      "Ġelement": 1278,
      "ĠIn": 1279,
      "defined": 1280,
      "ement": 1281,
      "Ġunderstand": 1282,
      "Ġdirect": 1283,
      "Ġwithout": 1284,
      "Ġsuch": 1285,
      "Ġke": 1286,
      "Ġstart": 1287,
      "we": 1288,
      "Ġlink": 1289,
      "Ġcreate": 1290,
      "function": 1291,
      "Ġ>": 1292,
      "For": 1293,
      "Why": 1294,
      "'ve": 1295,
      "Ġsp": 1296,
      "Ġmay": 1297,
      "pro": 1298,
      "arning": 1299,
      "Ġthread": 1300,
      "Ġgener": 1301,
      "time": 1302,
      "Ġterm": 1303,
      "unsigned": 1304,
      "emp": 1305,
      "Ġbuffer": 1306,
      "][": 1307,
      "mb": 1308,
      "Ġsign": 1309,
      "cept": 1310,
      "const": 1311,
      "gth": 1312,
      "cp": 1313,
      "sh": 1314,
      "Ġsupp": 1315,
      "ne": 1316,
      "ĠĠĠĠĠĠĠĠĠĠĠ": 1317,
      "Ġsol": 1318,
      "other": 1319,
      "99": 1320,
      "Ġmod": 1321,
      "scanf": 1322,
      "ER": 1323,
      "Ġstore": 1324,
      "ault": 1325,
      "vert": 1326,
      "Ġsource": 1327,
      "Ġexpl": 1328,
      "Ġsecond": 1329,
      "ĠIs": 1330,
      "Ġcorrect": 1331,
      "avi": 1332,
      "Ġuser": 1333,
      "lf": 1334,
      "Ġdis": 1335,
      "the": 1336,
      "num": 1337,
      "ating": 1338,
      "Ġmalloc": 1339,
      "SI": 1340,
      "'re": 1341,
      "Ġbefore": 1342,
      "Ġthese": 1343,
      "**": 1344,
      "Ġtried": 1345,
      "Ġper": 1346,
      "ry": 1347,
      "Ġopen": 1348,
      "==": 1349,
      "But": 1350,
      "Ġequ": 1351,
      "ud": 1352,
      "Ġact": 1353,
      "ĠV": 1354,
      "Ġel": 1355,
      "bers": 1356,
      "Ġlen": 1357,
      "ST": 1358,
      "Ġ!=": 1359,
      ").ĊĊ": 1360,
      "ared": 1361,
      "tern": 1362,
      "Ġz": 1363,
      "stat": 1364,
      "ression": 1365,
      "Ġobject": 1366,
      "Ġinclude": 1367,
      "Ġdoing": 1368,
      "bit": 1369,
      "Ġworks": 1370,
      "...Ċ": 1371,
      "ĠH": 1372,
      "cri": 1373,
      "Ġput": 1374,
      "Ġbehavi": 1375,
      "Ġent": 1376,
      "Ġloc": 1377,
      "ies": 1378,
      "thing": 1379,
      "typedef": 1380,
      "ween": 1381,
      "Ġ[": 1382,
      "Ġsimple": 1383,
      "oes": 1384,
      "very": 1385,
      "og": 1386,
      "Ġbytes": 1387,
      "ise": 1388,
      "(void": 1389,
      "Ġmacro": 1390,
      "add": 1391,
      "PI": 1392,
      "Ġwrong": 1393,
      "],": 1394,
      "Ġchange": 1395,
      "Ġseem": 1396,
      "ates": 1397,
      "(f": 1398,
      "Ġstructure": 1399,
      "ax": 1400,
      "ery": 1401,
      "Ġbetween": 1402,
      "point": 1403,
      "ĠSo": 1404,
      "ote": 1405,
      "\";Ċ": 1406,
      "ome": 1407,
      "))": 1408,
      "Ġassign": 1409,
      "angu": 1410,
      "ft": 1411,
      "ĠBut": 1412,
      "Ġaccess": 1413,
      "unc": 1414,
      "Ġunsigned": 1415,
      "/Ċ": 1416,
      "ines": 1417,
      "Ġpointers": 1418,
      "();Ċ": 1419,
      "Ġthing": 1420,
      "Ġconvert": 1421,
      "Ġformat": 1422,
      "Ġgu": 1423,
      "Ġtermin": 1424,
      "Ġhand": 1425,
      "ten": 1426,
      "Ġelse": 1427,
      "ify": 1428,
      "main": 1429,
      "Ġap": 1430,
      "Ġtyp": 1431,
      "Ġdefined": 1432,
      "amet": 1433,
      "Ġapplic": 1434,
      "but": 1435,
      "Str": 1436,
      "ably": 1437,
      "Ġ\\": 1438,
      "Ġfound": 1439,
      "dex": 1440,
      "Ġright": 1441,
      "data": 1442,
      "arr": 1443,
      "Ġfloat": 1444,
      "Ġboth": 1445,
      "AR": 1446,
      "Ġsa": 1447,
      "Ġcharacters": 1448,
      "Ġexpect": 1449,
      "sum": 1450,
      "opy": 1451,
      "sy": 1452,
      "Ġthr": 1453,
      "side": 1454,
      "*)": 1455,
      "25": 1456,
      "cpy": 1457,
      "ative": 1458,
      "while": 1459,
      "cript": 1460,
      "gcc": 1461,
      "ution": 1462,
      "Ġbu": 1463,
      "which": 1464,
      "ny": 1465,
      "Ġsure": 1466,
      ",Ċ": 1467,
      "Ġproject": 1468,
      "Ġscanf": 1469,
      "ways": 1470,
      "Ġhapp": 1471,
      "Ġanother": 1472,
      "Ġbl": 1473,
      "Ġstatement": 1474,
      "ON": 1475,
      "enc": 1476,
      "Ġheader": 1477,
      "mem": 1478,
      "Ġmult": 1479,
      "Ġtext": 1480,
      "CC": 1481,
      ":Ċ": 1482,
      "Ġmat": 1483,
      "IT": 1484,
      "MA": 1485,
      "Ġgcc": 1486,
      "Ġbits": 1487,
      "Ġwon": 1488,
      "Ġinstead": 1489,
      "Ġworking": 1490,
      "Ġcontain": 1491,
      "]);Ċ": 1492,
      "Ġthink": 1493,
      "be": 1494,
      "ans": 1495,
      "Ġevery": 1496,
      "Ġexpression": 1497,
      "Ġfoo": 1498,
      "Ġlook": 1499,
      "Ġlangu": 1500,
      "by": 1501,
      "ILE": 1502,
      "Ġlit": 1503,
      "ason": 1504,
      "FF": 1505,
      ".g": 1506,
      "((": 1507,
      "ĠLinux": 1508,
      "Ġser": 1509,
      "ash": 1510,
      ").Ċ": 1511,
      "ero": 1512,
      "ood": 1513,
      "Ġdouble": 1514,
      "Ġoperator": 1515,
      "Ġcannot": 1516,
      "thread": 1517,
      "ww": 1518,
      "Ġrefer": 1519,
      "Ġcount": 1520,
      "essage": 1521,
      "Ġac": 1522,
      "',": 1523,
      "arch": 1524,
      "Ġ,": 1525,
      "++)Ċ": 1526,
      "return": 1527,
      "!Ċ": 1528,
      "My": 1529,
      "Ġreason": 1530,
      "Ġsay": 1531,
      "Ġgetting": 1532,
      "Ġdes": 1533,
      "Ġbeen": 1534,
      "Ġvoid": 1535,
      "(char": 1536,
      "lag": 1537,
      "ĠFor": 1538,
      "Ġparamet": 1539,
      "pend": 1540,
      "ĠĠĠĠĠĠ": 1541,
      "Ġeven": 1542,
      "AT": 1543,
      "ocket": 1544,
      "bug": 1545,
      "ĠWhat": 1546,
      "wr": 1547,
      "its": 1548,
      "Ġqu": 1549,
      "value": 1550,
      "inary": 1551,
      ".t": 1552,
      "ale": 1553,
      "ethod": 1554,
      "argv": 1555,
      "Ġnumbers": 1556,
      "Ġ/*": 1557,
      "Ġdid": 1558,
      "Ġdeclar": 1559,
      "quire": 1560,
      "per": 1561,
      "Ġtell": 1562,
      "sing": 1563,
      "Ġwarning": 1564,
      "Ġalways": 1565,
      "Ġvariables": 1566,
      "ming": 1567,
      "ier": 1568,
      "(&": 1569,
      "Ġstd": 1570,
      "Ġrep": 1571,
      "Ġcalled": 1572,
      "plic": 1573,
      "ĠJ": 1574,
      "ized": 1575,
      "There": 1576,
      "self": 1577,
      "prove": 1578,
      "(i": 1579,
      "ĠX": 1580,
      "vent": 1581,
      "DE": 1582,
      "Ġwriting": 1583,
      "OR": 1584,
      "old": 1585,
      "Ġvery": 1586,
      "Ġreturns": 1587,
      "Ġcurrently": 1588,
      "Ġinter": 1589,
      "Ġlength": 1590,
      "Ġ#": 1591,
      "malloc": 1592,
      "Ġfree": 1593,
      "ĠĠĠĠĠĠĠĠĠĠĠĠĠĠĠĠ": 1594,
      "aries": 1595,
      "with": 1596,
      "Ġ?": 1597,
      "Ġstack": 1598,
      "----": 1599,
      "ule": 1600,
      "::": 1601,
      "du": 1602,
      "Ġ*/Ċ": 1603,
      "uff": 1604,
      "ical": 1605,
      "Ġapplication": 1606,
      "ĠWindows": 1607,
      "Ġnow": 1608,
      "Here": 1609,
      "Ġbyte": 1610,
      "Ġaccept": 1611,
      "Ġrec": 1612,
      "Ġspace": 1613,
      "Ġable": 1614,
      "NULL": 1615,
      "Ġreg": 1616,
      "Ġdet": 1617,
      "ails": 1618,
      "Ġbas": 1619,
      "Ġoption": 1620,
      "Ġ<<": 1621,
      "dd": 1622,
      "Can": 1623,
      "Ġthrough": 1624,
      "(s": 1625,
      "Ġbelow": 1626,
      "double": 1627,
      "Ġbehavior": 1628,
      "uint": 1629,
      "Ġversion": 1630,
      "test": 1631,
      "Ġ$": 1632,
      "Ġreally": 1633,
      "Ġsince": 1634,
      "par": 1635,
      "Ġ*)": 1636,
      "As": 1637,
      "own": 1638,
      "ving": 1639,
      "Ġdefin": 1640,
      "\"Ċ": 1641,
      "Ġabove": 1642,
      "Ġbeing": 1643,
      "Ġ}": 1644,
      ".com": 1645,
      "Ġexplain": 1646,
      "ither": 1647,
      "Ġsupport": 1648,
      "Ġide": 1649,
      "ool": 1650,
      "indow": 1651,
      "ield": 1652,
      "rec": 1653,
      "Ġfe": 1654,
      "Ġrequire": 1655,
      "Ġconf": 1656,
      "SE": 1657,
      "Ġmost": 1658,
      "code": 1659,
      "Ġlanguage": 1660,
      "Ġgive": 1661,
      "Ġanyone": 1662,
      "ub": 1663,
      "And": 1664,
      "Ġsolution": 1665,
      "Ġmust": 1666,
      "bably": 1667,
      "ages": 1668,
      "Im": 1669,
      "Ġspecific": 1670,
      "To": 1671,
      "Ġcast": 1672,
      "Ġmight": 1673,
      "resent": 1674,
      "Ġlooking": 1675,
      "ocument": 1676,
      "ernel": 1677,
      "Ġorder": 1678,
      "Ġcopy": 1679,
      "Ġundefined": 1680,
      "RE": 1681,
      "Ġ&&": 1682,
      "Ġ(*": 1683,
      "Ġ...": 1684,
      ".e": 1685,
      "comm": 1686,
      "vide": 1687,
      "uch": 1688,
      "ask": 1689,
      "Ġback": 1690,
      ";i": 1691,
      "float": 1692,
      "wor": 1693,
      "foo": 1694,
      "Ġgood": 1695,
      "fo": 1696,
      "will": 1697,
      "Ġnode": 1698,
      ")Closed": 1699,
      "Ġarr": 1700,
      "gets": 1701,
      "Ġrunning": 1702,
      "ml": 1703,
      "dition": 1704,
      "Ar": 1705,
      "Ġdifference": 1706,
      "ĠâĢ": 1707,
      "Ġadv": 1708,
      "Ġmethod": 1709,
      "Ġ_": 1710,
      "ee": 1711,
      "yth": 1712,
      "Ġmeans": 1713,
      "Ġconstant": 1714,
      "Ġkey": 1715,
      "ingle": 1716,
      "Ġword": 1717,
      "valu": 1718,
      "imal": 1719,
      "(a": 1720,
      "âĢĻ": 1721,
      "ython": 1722,
      "Ġstill": 1723,
      "Ġport": 1724,
      "St": 1725,
      "ick": 1726,
      "used": 1727,
      "Ġtypes": 1728,
      "Ġbinary": 1729,
      "Ġanything": 1730,
      "Ġ**": 1731,
      "Ġuses": 1732,
      "Ġdone": 1733,
      "formation": 1734,
      "nam": 1735,
      "imes": 1736,
      "ia": 1737,
      "Ġoff": 1738,
      "++)": 1739,
      "Ġsub": 1740,
      "Ġmulti": 1741,
      "_s": 1742,
      "Ġdec": 1743,
      "Ġmany": 1744,
      "Ġlast": 1745,
      "ious": 1746,
      "reak": 1747,
      "Ġgot": 1748,
      "Ġeas": 1749,
      "(b": 1750,
      "Ġbuild": 1751,
      "Ġrem": 1752,
      "lob": 1753,
      "Ġ'\\": 1754,
      "ream": 1755,
      "Ġarguments": 1756,
      "Ġreading": 1757,
      "wn": 1758,
      "urs": 1759,
      "Ġsocket": 1760,
      "Ġseems": 1761,
      "Ġzero": 1762,
      "ithm": 1763,
      "comp": 1764,
      "Ġlibraries": 1765,
      "_C": 1766,
      "where": 1767,
      "Ġwritten": 1768,
      "ware": 1769,
      "gest": 1770,
      "Ġactually": 1771,
      "'d": 1772,
      "_m": 1773,
      "edit": 1774,
      "Ġsend": 1775,
      "ension": 1776,
      "ĠSt": 1777,
      "Ġcondition": 1778,
      "(x": 1779,
      "up": 1780,
      "ether": 1781,
      "50": 1782,
      "Ġsingle": 1783,
      "stead": 1784,
      "list": 1785,
      "Ġrepresent": 1786,
      "Ġav": 1787,
      "Ġneeds": 1788,
      "Ġdepend": 1789,
      "Ġprobably": 1790,
      "process": 1791,
      "Ġstatic": 1792,
      "pen": 1793,
      "Ġwell": 1794,
      "Ġchang": 1795,
      "Ġstrings": 1796,
      "Ġdirectory": 1797,
      ".Closed": 1798,
      "Al": 1799,
      "Ġinformation": 1800,
      "Ġfine": 1801,
      "Ġprovide": 1802,
      "tc": 1803,
      "Ġexist": 1804,
      "Ġrand": 1805,
      "ilar": 1806,
      "alent": 1807,
      "ient": 1808,
      "Ġmessage": 1809,
      "ish": 1810,
      "ply": 1811,
      "db": 1812,
      "flow": 1813,
      "Ġtake": 1814,
      "Ġid": 1815,
      "ivalent": 1816,
      "Ġtemp": 1817,
      "atform": 1818,
      "Ġlet": 1819,
      "Ġexact": 1820,
      "Ġ:ĊĊ": 1821,
      "Ġpath": 1822,
      "Ġ((": 1823,
      "ave": 1824,
      "Ġsum": 1825,
      "Ġgives": 1826,
      "Ġcol": 1827,
      "eral": 1828,
      "ved": 1829,
      "]=": 1830,
      "term": 1831,
      "Ġfix": 1832,
      ".txt": 1833,
      "File": 1834,
      "sp": 1835,
      "Ġhe": 1836,
      "FILE": 1837,
      "Ġpost": 1838,
      "crement": 1839,
      "no": 1840,
      "stdlib": 1841,
      "Ġmuch": 1842,
      "Ġplease": 1843,
      "/C": 1844,
      "Ġgiven": 1845,
      "Ġsearch": 1846,
      "port": 1847,
      "wise": 1848,
      "Ġcle": 1849,
      "Ġimplementation": 1850,
      "Ġevalu": 1851,
      "Ġnon": 1852,
      "Ġfr": 1853,
      "Ġvalid": 1854,
      "this": 1855,
      "String": 1856,
      "Ġnext": 1857,
      "Ġequivalent": 1858,
      "Ġinside": 1859,
      "Ġdebug": 1860,
      "14": 1861,
      "15": 1862,
      "Po": 1863,
      "Ġdefinition": 1864,
      "count": 1865,
      "Ch": 1866,
      "_f": 1867,
      "Ġkernel": 1868,
      "Ġelements": 1869,
      "Ġlog": 1870,
      "ular": 1871,
      "(*": 1872,
      "Ġcomple": 1873,
      "Ġpos": 1874,
      "Ġbetter": 1875,
      "Ġallocated": 1876,
      "-bit": 1877,
      "Ġ\"%": 1878,
      "Con": 1879,
      "Ġetc": 1880,
      "++;Ċ": 1881,
      "Ġprogramming": 1882,
      "111": 1883,
      "ful": 1884,
      "aces": 1885,
      "Ġsomeone": 1886,
      "Ġaut": 1887,
      "Ġthose": 1888,
      "AL": 1889,
      "Ġ__": 1890,
      "Ġgr": 1891,
      "ute": 1892,
      "Ġdeclaration": 1893,
      "Ġarrays": 1894,
      "org": 1895,
      "long": 1896,
      "Ġ)": 1897,
      "Ġown": 1898,
      "'ll": 1899,
      "Ġ?Ċ": 1900,
      "Ġdr": 1901,
      "ME": 1902,
      "Ġeither": 1903,
      "write": 1904,
      "Ġindex": 1905,
      "Ġeff": 1906,
      "Ġnam": 1907,
      "igure": 1908,
      "Ġargc": 1909,
      "_P": 1910,
      "ook": 1911,
      "loc": 1912,
      "pre": 1913,
      "vice": 1914,
      "Ġtool": 1915,
      "Ġiss": 1916,
      "Ġdocument": 1917,
      "Ġsimilar": 1918,
      "Ġwonder": 1919,
      "Ġbreak": 1920,
      "(n": 1921,
      "ĠĠĊ": 1922,
      "imit": 1923,
      "Ex": 1924,
      "Ġallow": 1925,
      "Ġ}ĊĊ": 1926,
      "ider": 1927,
      "mbol": 1928,
      "Ġnull": 1929,
      "RO": 1930,
      "Ġsc": 1931,
      "Ġliteral": 1932,
      "Ġenter": 1933,
      "ailable": 1934,
      "Ġhappen": 1935,
      "inal": 1936,
      "<stdio": 1937,
      ".org": 1938,
      "Ġdefault": 1939,
      "Ġhaving": 1940,
      "aa": 1941,
      "Ġseg": 1942,
      "Ġserver": 1943,
      "hello": 1944,
      "Ġsm": 1945,
      "cat": 1946,
      "play": 1947,
      "head": 1948,
      "Ġassum": 1949,
      "(p": 1950,
      "pointer": 1951,
      "Array": 1952,
      "aw": 1953,
      "Ġexit": 1954,
      "akes": 1955,
      "static": 1956,
      "lobal": 1957,
      "30": 1958,
      "fe": 1959,
      "here": 1960,
      "Ġdefine": 1961,
      "Ġdeclare": 1962,
      "udio": 1963,
      "Ġflag": 1964,
      "version": 1965,
      "lect": 1966,
      "ĠAnd": 1967,
      "Ġparameter": 1968,
      "igh": 1969,
      "Ġsug": 1970,
      "Ġmis": 1971,
      "ait": 1972,
      "ding": 1973,
      "Ġpas": 1974,
      "AN": 1975,
      "Any": 1976,
      "Ġisn": 1977,
      "Ġkeep": 1978,
      "Ġrepl": 1979,
      "Ġaccepting": 1980,
      "Ġtoo": 1981,
      "(str": 1982,
      "ava": 1983,
      "ope": 1984,
      "iate": 1985,
      "ush": 1986,
      "(sizeof": 1987,
      "Ġsimply": 1988,
      "kes": 1989,
      "orm": 1990,
      "Ġtrue": 1991,
      "lient": 1992,
      "call": 1993,
      "Ġsw": 1994,
      "Ġdig": 1995,
      "Ġsuggest": 1996,
      "_in": 1997,
      "sider": 1998,
      "ntax": 1999,
      "ision": 2000,
      ".o": 2001,
      "Ġacc": 2002,
      "Ġpare": 2003,
      "Ġperform": 2004,
      "Ġclar": 2005,
      "Ġavailable": 2006,
      "(\"\\": 2007,
      "ynam": 2008,
      "reat": 2009,
      "]Ċ": 2010,
      "Ġ--": 2011,
      "aph": 2012,
      "13": 2013,
      "Ġob": 2014,
      "Ġgoing": 2015,
      "Hello": 2016,
      "MAX": 2017,
      "Ġplatform": 2018,
      "ces": 2019,
      "word": 2020,
      "Ġstored": 2021,
      "Ġ++": 2022,
      "Ġallocate": 2023,
      "app": 2024,
      "ĠâĢĺ": 2025,
      "Improve": 2026,
      "Ġmode": 2027,
      "sole": 2028,
      "Ġprints": 2029,
      ".Improve": 2030,
      "Ġmax": 2031,
      "ĠAPI": 2032,
      "ED": 2033,
      "Ġ||": 2034,
      "ecause": 2035,
      "ĠGCC": 2036,
      "vious": 2037,
      "Ġpack": 2038,
      "isual": 2039,
      "Ġchild": 2040,
      "ĠOS": 2041,
      ",ĊĊ": 2042,
      "bin": 2043,
      "Ġidea": 2044,
      "No": 2045,
      ".ht": 2046,
      "Ġmach": 2047,
      "Ġbest": 2048,
      "Ġleft": 2049,
      "how": 2050,
      "var": 2051,
      "Ġlo": 2052,
      "OF": 2053,
      "_p": 2054,
      "temp": 2055,
      "Ġappro": 2056,
      "Ġreference": 2057,
      ")(": 2058,
      "less": 2059,
      "Ġask": 2060,
      "Ġhandle": 2061,
      "(),": 2062,
      "Ġcontent": 2063,
      "addr": 2064,
      "Ġind": 2065,
      "Ġmultiple": 2066,
      "Ġcomment": 2067,
      "SC": 2068,
      "ĠCan": 2069,
      "Use": 2070,
      "Ġcalling": 2071,
      "Ġblock": 2072,
      "Ġunt": 2073,
      "ĠHowever": 2074,
      "NU": 2075,
      "nter": 2076,
      "ather": 2077,
      "Ġdeclared": 2078,
      "Ġcalls": 2079,
      "Ġprec": 2080,
      "Yes": 2081,
      "itch": 2082,
      "Ġrece": 2083,
      "ature": 2084,
      "log": 2085,
      "Ġshort": 2086,
      "Ġca": 2087,
      "Ġequal": 2088,
      "UT": 2089,
      "rary": 2090,
      "...ĊĊ": 2091,
      "However": 2092,
      "45": 2093,
      "rc": 2094,
      "Ġrandom": 2095,
      "tok": 2096,
      "print": 2097,
      "Ġsignal": 2098,
      "ody": 2099,
      "INT": 2100,
      "Ġsymbol": 2101,
      "LA": 2102,
      "you": 2103,
      "Ġclient": 2104,
      "123": 2105,
      "Ġ);Ċ": 2106,
      "Ġnever": 2107,
      "Add": 2108,
      "hing": 2109,
      "next": 2110,
      "01": 2111,
      "Ġext": 2112,
      "ty": 2113,
      "\".": 2114,
      "Ġsyntax": 2115,
      "Ġtrans": 2116,
      "Ġadvance": 2117,
      "Ġcr": 2118,
      "(c": 2119,
      "Ġexpected": 2120,
      "like": 2121,
      "Ġuint": 2122,
      "Ġcompiled": 2123,
      "ob": 2124,
      "Ġagain": 2125,
      "cul": 2126,
      "alse": 2127,
      "ĠWhen": 2128,
      "Ġexactly": 2129,
      "Pr": 2130,
      "using": 2131,
      "Ġlines": 2132,
      "cmp": 2133,
      "Ġuntil": 2134,
      "Ġfact": 2135,
      "Ġgets": 2136,
      "instead": 2137,
      "Ġwhether": 2138,
      "Ġem": 2139,
      "Ġlot": 2140,
      "Ġcontr": 2141,
      "Ġwho": 2142,
      "Ġinitializ": 2143,
      "Ġclass": 2144,
      "vel": 2145,
      "velo": 2146,
      "Ġcontains": 2147,
      "Ġtheir": 2148,
      "Ġpage": 2149,
      "/m": 2150,
      "EN": 2151,
      "Ġexecutable": 2152,
      "Note": 2153,
      "';Ċ": 2154,
      "www": 2155,
      "SS": 2156,
      "tk": 2157,
      "ĠThere": 2158,
      "ID": 2159,
      "work": 2160,
      "date": 2161,
      "Ġ...Ċ": 2162,
      "Thank": 2163,
      "Ġwindow": 2164,
      "))Ċ": 2165,
      "Ġsays": 2166,
      "Ġerrors": 2167,
      "Ġargv": 2168,
      "Ġnothing": 2169,
      "80": 2170,
      "AD": 2171,
      "Ġdynam": 2172,
      "ility": 2173,
      "Ġlocal": 2174,
      "buf": 2175,
      "new": 2176,
      "].": 2177,
      "ĠMy": 2178,
      "Ġplace": 2179,
      "Ġtakes": 2180,
      "?(": 2181,
      "Now": 2182,
      "Ġwondering": 2183,
      "os": 2184,
      "_c": 2185,
      "\",&": 2186,
      "(){Ċ": 2187,
      "Ġcreated": 2188,
      "*(": 2189,
      "Ġthings": 2190,
      "201": 2191,
      "EX": 2192,
      "Ġdown": 2193,
      "Ġthough": 2194,
      "free": 2195,
      "else": 2196,
      "ted": 2197,
      "Ġbr": 2198,
      "gin": 2199,
      "Ġsepar": 2200,
      "/c": 2201,
      "That": 2202,
      "40": 2203,
      "Ġptr": 2204,
      "vir": 2205,
      "oot": 2206,
      "pos": 2207,
      "ourse": 2208,
      "Ġintegers": 2209,
      "Ġlooks": 2210,
      "Ġclo": 2211,
      "ors": 2212,
      "Ġpassed": 2213,
      "ma": 2214,
      "Ġextr": 2215,
      "Ġincrement": 2216,
      "];": 2217,
      "23": 2218,
      "Ġsort": 2219,
      "'\\": 2220,
      "Ġpoints": 2221,
      "\"%": 2222,
      "rix": 2223,
      "Also": 2224,
      "Ġitself": 2225,
      "Ġshow": 2226,
      "oper": 2227,
      "gor": 2228,
      "Ġglobal": 2229,
      "rr": 2230,
      "sg": 2231,
      "atch": 2232,
      "_S": 2233,
      "Ġtimes": 2234,
      "Ġfield": 2235,
      "Ġmachine": 2236,
      "ĠThanks": 2237,
      "Ġfopen": 2238,
      "iated": 2239,
      "uction": 2240,
      "Ġhex": 2241,
      "ser": 2242,
      "Ġcalcul": 2243,
      "Ġterminal": 2244,
      "Ġdetails": 2245,
      "Ġassignment": 2246,
      "\"ĊĊ": 2247,
      "from": 2248,
      "Ġhigh": 2249,
      "Ġsmall": 2250,
      "ions": 2251,
      "....": 2252,
      "200": 2253,
      "buffer": 2254,
      "Ġinv": 2255,
      "Ġwithin": 2256,
      "Ġleast": 2257,
      "19": 2258,
      "https": 2259,
      "Ġclear": 2260,
      "Ġmakes": 2261,
      "input": 2262,
      "Ġfar": 2263,
      "ĠAny": 2264,
      "number": 2265,
      "ific": 2266,
      "ĠThat": 2267,
      "CT": 2268,
      "net": 2269,
      "gorithm": 2270,
      "Ġthreads": 2271,
      "ik": 2272,
      "lock": 2273,
      "Ġbegin": 2274,
      ".html": 2275,
      "Ġreturned": 2276,
      "gle": 2277,
      "Ġcourse": 2278,
      "ĠĠĠĠĊ": 2279,
      "Ġexecute": 2280,
      "Ġfault": 2281,
      "ower": 2282,
      "Ġwindows": 2283,
      "does": 2284,
      "Ġtable": 2285,
      "Ġdisplay": 2286,
      "Or": 2287,
      "_T": 2288,
      "do": 2289,
      "LO": 2290,
      "nect": 2291,
      "Ġlinux": 2292,
      "Ġissue": 2293,
      "Val": 2294,
      "viron": 2295,
      "86": 2296,
      "Ġfigure": 2297,
      "Ġmodify": 2298,
      "ĠWhy": 2299,
      "Ġmin": 2300,
      "text": 2301,
      "Ġprot": 2302,
      "ilt": 2303,
      "omat": 2304,
      "gn": 2305,
      "Ġ^": 2306,
      "Does": 2307,
      "Get": 2308,
      "Ġproper": 2309,
      "SD": 2310,
      "ler": 2311,
      "Ġdirectly": 2312,
      "Ġdidn": 2313,
      "Ġiter": 2314,
      "Ġdiv": 2315,
      "Ġdocumentation": 2316,
      "sert": 2317,
      "system": 2318,
      "Ġ)Ċ": 2319,
      "Ġhard": 2320,
      "Ġ+=": 2321,
      "Ġ;": 2322,
      "Ġsegment": 2323,
      "Num": 2324,
      "ZE": 2325,
      "{ĊĊ": 2326,
      "ump": 2327,
      "Ġ?ĊĊ": 2328,
      "Ġavoid": 2329,
      "Ġ<=": 2330,
      "Ġaround": 2331,
      "#if": 2332,
      "tle": 2333,
      "Ġonce": 2334,
      "load": 2335,
      "ference": 2336,
      "exe": 2337,
      "Name": 2338,
      "close": 2339,
      "Ġdescript": 2340,
      "Ġkind": 2341,
      "ĠUn": 2342,
      "Ġcompiling": 2343,
      "];ĊĊ": 2344,
      "Ġopt": 2345,
      "De": 2346,
      "usr": 2347,
      "fp": 2348,
      "Ġdecimal": 2349,
      "/*": 2350,
      "On": 2351,
      "struction": 2352,
      ".W": 2353,
      "\")": 2354,
      "xx": 2355,
      "arget": 2356,
      "Ġlar": 2357,
      "Ġrel": 2358,
      "Ġlinked": 2359,
      "semb": 2360,
      "Ġatt": 2361,
      "iew": 2362,
      "cess": 2363,
      "Ġtok": 2364,
      "Ġapprec": 2365,
      "ences": 2366,
      "Ġocc": 2367,
      "dev": 2368,
      "utput": 2369,
      "/lib": 2370,
      "_B": 2371,
      "ives": 2372,
      "ĠK": 2373,
      "From": 2374,
      "plicate": 2375,
      "Ġfunc": 2376,
      "):ĊĊ": 2377,
      "};ĊĊ": 2378,
      "Your": 2379,
      "processor": 2380,
      "ET": 2381,
      "face": 2382,
      "way": 2383,
      "Ġlocation": 2384,
      "24": 2385,
      "idth": 2386,
      "Ġless": 2387,
      "Ġresults": 2388,
      "back": 2389,
      "ict": 2390,
      "Ġvar": 2391,
      "Ġprinting": 2392,
      "Ġgenerate": 2393,
      "++,": 2394,
      "vironment": 2395,
      "start": 2396,
      "Ġgreat": 2397,
      "Ġcert": 2398,
      "ĠOr": 2399,
      "/s": 2400,
      "Ġrather": 2401,
      "Ġsuccess": 2402,
      "-s": 2403,
      "omething": 2404,
      "Ġinitialize": 2405,
      "ases": 2406,
      "ift": 2407,
      "Ġconversion": 2408,
      "ially": 2409,
      "node": 2410,
      "rand": 2411,
      "Ġhappens": 2412,
      "eded": 2413,
      "icular": 2414,
      "Ġident": 2415,
      "Then": 2416,
      "Ġ->": 2417,
      "Ġsequ": 2418,
      "oop": 2419,
      "ĠOpen": 2420,
      "Ġ\");Ċ": 2421,
      "pty": 2422,
      "Ġside": 2423,
      "rror": 2424,
      "ner": 2425,
      "Ġposition": 2426,
      "_N": 2427,
      "that": 2428,
      "velop": 2429,
      "./": 2430,
      "CK": 2431,
      "Ġparameters": 2432,
      "Please": 2433,
      "unt": 2434,
      "Ġalgorithm": 2435,
      "Ġpassing": 2436,
      "Data": 2437,
      "Ġwere": 2438,
      "Ġshell": 2439,
      "Ġbuf": 2440,
      "omp": 2441,
      "Ġanint": 2442,
      "Ġnorm": 2443,
      "ĠĠĠĠĠĠĠĠĠ": 2444,
      "Ġ\",": 2445,
      "Enter": 2446,
      "me": 2447,
      "ian": 2448,
      "some": 2449,
      "Ġconsole": 2450,
      "Ġshared": 2451,
      "Ġparticular": 2452,
      "Ġeffect": 2453,
      "sys": 2454,
      "IG": 2455,
      "Ġhad": 2456,
      "ording": 2457,
      "Ġreplace": 2458,
      "bo": 2459,
      "Ġreal": 2460,
      "Ġoperation": 2461,
      "Ġautomat": 2462,
      "Ġcompare": 2463,
      "Ġnames": 2464,
      "Int": 2465,
      "over": 2466,
      "Ġlat": 2467,
      "uses": 2468,
      "Ġmissing": 2469,
      "ov": 2470,
      "_name": 2471,
      "Ġextension": 2472,
      "])": 2473,
      "Ġprodu": 2474,
      "Ġ>>": 2475,
      "ging": 2476,
      "trib": 2477,
      "Ġconsider": 2478,
      "Ġimage": 2479,
      "ister": 2480,
      "Ġcomput": 2481,
      "ĠMA": 2482,
      "icro": 2483,
      "Ġbig": 2484,
      "Ġscript": 2485,
      "89": 2486,
      "'Ċ": 2487,
      "Ġhowever": 2488,
      "PU": 2489,
      "ought": 2490,
      "has": 2491,
      "ention": 2492,
      "Ġrange": 2493,
      "Ġimprove": 2494,
      "Ġwhole": 2495,
      "iled": 2496,
      "Ġinitialized": 2497,
      "Re": 2498,
      "With": 2499,
      "Ġappe": 2500,
      "','": 2501,
      ".This": 2502,
      "ieve": 2503,
      "ql": 2504,
      "pthread": 2505,
      "Ġenough": 2506,
      "inking": 2507,
      "see": 2508,
      "Ġvia": 2509,
      "ipe": 2510,
      "Ġnecess": 2511,
      "Ġorig": 2512,
      "Ġbehaviour": 2513,
      "key": 2514,
      "Ġstrlen": 2515,
      "Ġguess": 2516,
      "Ġcontrol": 2517,
      "Ġlikely": 2518,
      "orial": 2519,
      "Ġinstall": 2520,
      "<<": 2521,
      "By": 2522,
      "ni": 2523,
      "what": 2524,
      "valid": 2525,
      "ĠĠĠĠĠĠĠĠĠĠĠĠĠĠĠ": 2526,
      "when": 2527,
      "osed": 2528,
      "dit": 2529,
      "decl": 2530,
      "Ġstream": 2531,
      "ph": 2532,
      "Ġspecify": 2533,
      "%d": 2534,
      "Ġlittle": 2535,
      "MP": 2536,
      "OSI": 2537,
      "ling": 2538,
      "Ġload": 2539,
      "OS": 2540,
      "dir": 2541,
      "cluding": 2542,
      "Ġcrash": 2543,
      "Ġoptim": 2544,
      "Ġstor": 2545,
      "Ġmember": 2546,
      "Ġactual": 2547,
      "Pro": 2548,
      "ade": 2549,
      "fd": 2550,
      "ĠVisual": 2551,
      "body": 2552,
      "arn": 2553,
      "Ġmade": 2554,
      "older": 2555,
      "ĠIP": 2556,
      "Ġenvironment": 2557,
      "ĠJava": 2558,
      "arant": 2559,
      "oft": 2560,
      "ices": 2561,
      "program": 2562,
      "UR": 2563,
      "Ġfast": 2564,
      "Ġinstance": 2565,
      "Ġlarge": 2566,
      "Ġneg": 2567,
      "++){Ċ": 2568,
      "endif": 2569,
      "base": 2570,
      "Ġstop": 2571,
      "Ġmodule": 2572,
      "url": 2573,
      "Ġprinted": 2574,
      "Ġremove": 2575,
      "Ġcertain": 2576,
      "Try": 2577,
      "imum": 2578,
      "Ġsolve": 2579,
      "Ġ$(": 2580,
      "Ġclarify": 2581,
      "Ġstep": 2582,
      "enter": 2583,
      "Ġseparate": 2584,
      "top": 2585,
      "Ġrecomm": 2586,
      "Output": 2587,
      "func": 2588,
      "ger": 2589,
      "md": 2590,
      "uring": 2591,
      ",b": 2592,
      "ont": 2593,
      "Ġneeded": 2594,
      "ĠAl": 2595,
      "ird": 2596,
      "result": 2597,
      "tty": 2598,
      "Ġdeterm": 2599,
      "ypes": 2600,
      "256": 2601,
      "quest": 2602,
      "icient": 2603,
      "OSIX": 2604,
      "extern": 2605,
      "102": 2606,
      "Ġmatch": 2607,
      "Ġparent": 2608,
      "ys": 2609,
      "\");ĊĊ": 2610,
      "Ġprocesses": 2611,
      "18": 2612,
      "ward": 2613,
      "42": 2614,
      "Un": 2615,
      "_F": 2616,
      "Ġ\\Ċ": 2617,
      "??": 2618,
      "make": 2619,
      "Ġdevice": 2620,
      "nection": 2621,
      "-l": 2622,
      "Ġfull": 2623,
      "Ġdere": 2624,
      "editing": 2625,
      "33": 2626,
      "utex": 2627,
      "Ġold": 2628,
      "conf": 2629,
      "ense": 2630,
      "Ġinstruction": 2631,
      "Ġhold": 2632,
      "aps": 2633,
      "128": 2634,
      "mat": 2635,
      "Ġwait": 2636,
      "Ġoperand": 2637,
      "CH": 2638,
      "ified": 2639,
      "Ġstuff": 2640,
      "II": 2641,
      "List": 2642,
      "Ġclose": 2643,
      "Ġthought": 2644,
      "UN": 2645,
      "leep": 2646,
      "-c": 2647,
      "strlen": 2648,
      "17": 2649,
      "Ġsem": 2650,
      "inter": 2651,
      "vect": 2652,
      "Ġcorrectly": 2653,
      "Ġguarant": 2654,
      "GS": 2655,
      "tain": 2656,
      "Ġ};Ċ": 2657,
      "Ġbased": 2658,
      "Ġ`": 2659,
      "Ġcompilation": 2660,
      "abc": 2661,
      "pace": 2662,
      "oding": 2663,
      "Ġrequired": 2664,
      "\",\"": 2665,
      "Ġfew": 2666,
      "Ġwords": 2667,
      "ets": 2668,
      "ĠFILE": 2669,
      "=\"": 2670,
      "Edit": 2671,
      "Ġmaking": 2672,
      "ily": 2673,
      "')": 2674,
      "Ġmacros": 2675,
      "Ġwrote": 2676,
      "Ġswitch": 2677,
      ".Want": 2678,
      ":\\": 2679,
      "ua": 2680,
      "ystem": 2681,
      "cross": 2682,
      "lush": 2683,
      "ĠPython": 2684,
      "OT": 2685,
      "Ġachar": 2686,
      "Ġ*(": 2687,
      "Ġsection": 2688,
      "Ġspecifier": 2689,
      "length": 2690,
      "Ġfalse": 2691,
      "Ġvari": 2692,
      "55": 2693,
      "ĠWh": 2694,
      "SIZE": 2695,
      "Ġassemb": 2696,
      "Ġboo": 2697,
      "ĠThen": 2698,
      "man": 2699,
      ".d": 2700,
      "Ġdevelop": 2701,
      "que": 2702,
      "should": 2703,
      "255": 2704,
      "bar": 2705,
      "ffff": 2706,
      "Ġappreciated": 2707,
      "22": 2708,
      "Node": 2709,
      "variable": 2710,
      "Ġ{ĊĊ": 2711,
      "SCII": 2712,
      "TR": 2713,
      "upp": 2714,
      "Ġlimit": 2715,
      "ics": 2716,
      "Ġrule": 2717,
      "An": 2718,
      "Ġspec": 2719,
      "Ġpur": 2720,
      "operator": 2721,
      "!ĊĊ": 2722,
      "itly": 2723,
      "(std": 2724,
      "odu": 2725,
      "Ġcomplete": 2726,
      "untu": 2727,
      "##": 2728,
      "LI": 2729,
      "alled": 2730,
      "Ġenum": 2731,
      "Ġdescriptor": 2732,
      "ipse": 2733,
      "(const": 2734,
      "[j": 2735,
      "umn": 2736,
      "-in": 2737,
      "<=": 2738,
      "Since": 2739,
      "Ġsystems": 2740,
      "-b": 2741,
      "pose": 2742,
      "tmp": 2743,
      "ĠHere": 2744,
      "any": 2745,
      "user": 2746,
      "then": 2747,
      "command": 2748,
      "(struct": 2749,
      "pon": 2750,
      "Ġacross": 2751,
      "Ġbyediting": 2752,
      "Ġsigned": 2753,
      "Ġexplic": 2754,
      "(fp": 2755,
      "Ġfa": 2756,
      "Ġcompilers": 2757,
      "ĠPro": 2758,
      "ech": 2759,
      "full": 2760,
      "output": 2761,
      "ĠEOF": 2762,
      "#endif": 2763,
      "uplicate": 2764,
      "Ġeasy": 2765,
      "Ġnet": 2766,
      "proc": 2767,
      "Ġworld": 2768,
      "Ġprograms": 2769,
      "CE": 2770,
      "he": 2771,
      "ssib": 2772,
      "Ġincluded": 2773,
      "Ġsetting": 2774,
      "creen": 2775,
      "EDIT": 2776,
      "Ġarch": 2777,
      "Ġoverflow": 2778,
      "Ġmatrix": 2779,
      "Ġtoken": 2780,
      "clipse": 2781,
      "Ġtarget": 2782,
      "format": 2783,
      "Ġsequence": 2784,
      "02": 2785,
      "Ġach": 2786,
      "SO": 2787,
      "empt": 2788,
      "Ġcome": 2789,
      "Ġcreating": 2790,
      "STR": 2791,
      "Ġcontents": 2792,
      "Type": 2793,
      "Ġoriginal": 2794,
      "-C": 2795,
      "Ġes": 2796,
      "Ġsoft": 2797,
      "Ġsafe": 2798,
      "verse": 2799,
      "\");": 2800,
      "stream": 2801,
      "utorial": 2802,
      "byte": 2803,
      "--------": 2804,
      "ĠStudio": 2805,
      "map": 2806,
      "Ġextern": 2807,
      "eed": 2808,
      "Ġlevel": 2809,
      "yle": 2810,
      "Ġseen": 2811,
      "Ġcompar": 2812,
      "Ġadded": 2813,
      "ton": 2814,
      "chr": 2815,
      "Ġ(\"": 2816,
      "Ġsample": 2817,
      "Ġcause": 2818,
      "Ġempty": 2819,
      ".s": 2820,
      "aded": 2821,
      "Ġusually": 2822,
      "aking": 2823,
      "ifier": 2824,
      "(file": 2825,
      "Do": 2826,
      "Ġ./": 2827,
      "Ġpthread": 2828,
      "oogle": 2829,
      "Ġautomatically": 2830,
      "ĠQ": 2831,
      "Ġquite": 2832,
      "Ġthree": 2833,
      "Ġconnect": 2834,
      "atever": 2835,
      "Ġoptions": 2836,
      "Ġpreprocessor": 2837,
      "_MAX": 2838,
      "iver": 2839,
      "veral": 2840,
      "Ġapproach": 2841,
      "Ġnegative": 2842,
      "oup": 2843,
      "Ġcommon": 2844,
      ")/": 2845,
      "Ġtop": 2846,
      "Ġmention": 2847,
      "ĠAs": 2848,
      ".out": 2849,
      "Of": 2850,
      "Ġtot": 2851,
      "Ġdigits": 2852,
      ")[": 2853,
      "AB": 2854,
      "fix": 2855,
      "Ġsoftware": 2856,
      "Ġpract": 2857,
      "Ġspecified": 2858,
      "Ġexecuted": 2859,
      "soft": 2860,
      "Ġevent": 2861,
      "().": 2862,
      "Struct": 2863,
      "Ġdiff": 2864,
      "fgets": 2865,
      "ĠAr": 2866,
      "Ġruns": 2867,
      "upt": 2868,
      "ark": 2869,
      "ternative": 2870,
      "path": 2871,
      "Ġph": 2872,
      "ĠEx": 2873,
      "ĠTo": 2874,
      "reate": 2875,
      "_h": 2876,
      "Ġintern": 2877,
      "Ġscope": 2878,
      "_D": 2879,
      "Ġbase": 2880,
      "Ġseveral": 2881,
      "Ġasked": 2882,
      "Ġrecommend": 2883,
      "_d": 2884,
      "Ġfail": 2885,
      "Ġentire": 2886,
      "101": 2887,
      "Ġadding": 2888,
      "Ġ;Ċ": 2889,
      "Ġcases": 2890,
      "_R": 2891,
      "vector": 2892,
      ",\"": 2893,
      "mod": 2894,
      "Ġnecessary": 2895,
      "Ġ~": 2896,
      "atible": 2897,
      "Ġfeature": 2898,
      "001": 2899,
      "ĠOn": 2900,
      "48": 2901,
      "Ġfloating": 2902,
      "ca": 2903,
      "iece": 2904,
      "Ġgiving": 2905,
      "Ġchanged": 2906,
      "Ġmeaning": 2907,
      "Ġpointed": 2908,
      "Ġeverything": 2909,
      "Ġallowed": 2910,
      "\".ĊĊ": 2911,
      "orld": 2912,
      "Ġdele": 2913,
      "Ġ>=": 2914,
      "Ġassume": 2915,
      ".p": 2916,
      "60": 2917,
      "Ġoperations": 2918,
      ":http": 2919,
      "etic": 2920,
      "Ġreturning": 2921,
      "Ġcontin": 2922,
      "Ġsave": 2923,
      "Error": 2924,
      "Ġevaluated": 2925,
      "Ġframe": 2926,
      "Ġedit": 2927,
      "Ġaddition": 2928,
      "ĠDo": 2929,
      "Ġstdin": 2930,
      "tribute": 2931,
      "Ġfollows": 2932,
      ".a": 2933,
      ".exe": 2934,
      "CP": 2935,
      "ced": 2936,
      "/d": 2937,
      "Ġexecution": 2938,
      "Size": 2939,
      "Ġtypedef": 2940,
      "Value": 2941,
      "Ġpretty": 2942,
      "Ġimport": 2943,
      "Ġgeneral": 2944,
      "Ġconnection": 2945,
      "Ġwanted": 2946,
      "hould": 2947,
      "index": 2948,
      "Ġitem": 2949,
      "Ġbuilt": 2950,
      "PE": 2951,
      "_H": 2952,
      "Ġinfo": 2953,
      "Ġruntime": 2954,
      "Ġlinker": 2955,
      "buntu": 2956,
      "Se": 2957,
      "itu": 2958,
      "Just": 2959,
      "comple": 2960,
      "Ġdisc": 2961,
      "Ġdetect": 2962,
      "010": 2963,
      "31": 2964,
      "ĠASCII": 2965,
      "Ġtools": 2966,
      "Set": 2967,
      "mbed": 2968,
      "though": 2969,
      "Ġ@": 2970,
      "Ġroot": 2971,
      "Ġshows": 2972,
      ".m": 2973,
      "cle": 2974,
      "roid": 2975,
      "initial": 2976,
      "Ġpossib": 2977,
      "icrosoft": 2978,
      "Ġheap": 2979,
      "counter": 2980,
      "Ġinvo": 2981,
      "_M": 2982,
      "pid": 2983,
      "statement": 2984,
      "BU": 2985,
      "uild": 2986,
      "Ġpars": 2987,
      "ĠCPU": 2988,
      "strcpy": 2989,
      "Ġshift": 2990,
      ",&": 2991,
      "ĠCh": 2992,
      "Ġparse": 2993,
      "Ġlater": 2994,
      "Code": 2995,
      "Ġdel": 2996,
      "Ġbecom": 2997,
      "imension": 2998,
      "link": 2999,
      "Ġ*/": 3000,
      "Ġinterface": 3001,
      "fully": 3002,
      "67": 3003,
      "GL": 3004,
      "Ġcame": 3005,
      "Ġrequest": 3006,
      "Ġquestions": 3007,
      ":%": 3008,
      "_array": 3009,
      "first": 3010,
      "ison": 3011,
      "iler": 3012,
      "ĠDe": 3013,
      "See": 3014,
      "_W": 3015,
      "win": 3016,
      "Ġattempt": 3017,
      "(m": 3018,
      "ĠPOSIX": 3019,
      "_r": 3020,
      "action": 3021,
      "erest": 3022,
      "ING": 3023,
      "Ġsense": 3024,
      "isit": 3025,
      "crib": 3026,
      "ithmetic": 3027,
      "Ġassigned": 3028,
      "Ġturn": 3029,
      "ization": 3030,
      "ively": 3031,
      "Ġprevious": 3032,
      "(NULL": 3033,
      "ĠĊĊ": 3034,
      "Ġfork": 3035,
      "Ġign": 3036,
      "Ġregister": 3037,
      "Ġfun": 3038,
      "Ġselect": 3039,
      "Ġcontext": 3040,
      "memcpy": 3041,
      "Ġconfused": 3042,
      "loop": 3043,
      "returns": 3044,
      "Ġassembly": 3045,
      "UL": 3046,
      "Ġ!": 3047,
      "Ġrecurs": 3048,
      "Because": 3049,
      "thes": 3050,
      "Ġinterpre": 3051,
      "NI": 3052,
      "UE": 3053,
      "uck": 3054,
      "Ġincluding": 3055,
      "errno": 3056,
      "Ġoffset": 3057,
      "AME": 3058,
      "Ġresol": 3059,
      "Read": 3060,
      "Up": 3061,
      "_b": 3062,
      "uming": 3063,
      "Ġmatter": 3064,
      "Ġwhatever": 3065,
      "verflow": 3066,
      "Ġanswered": 3067,
      ".so": 3068,
      "Ġwidth": 3069,
      "Ġcounter": 3070,
      "Ġpress": 3071,
      "Ġsegmentation": 3072,
      "nipp": 3073,
      "wik": 3074,
      "Ġpiece": 3075,
      "Ġbasic": 3076,
      "AM": 3077,
      "fin": 3078,
      "Ġinvalid": 3079,
      "Ġsupposed": 3080,
      "Ġoperators": 3081,
      "All": 3082,
      "member": 3083,
      "flag": 3084,
      "lines": 3085,
      "info": 3086,
      "Ġprefer": 3087,
      "Ġinstalled": 3088,
      "Ġideas": 3089,
      "reg": 3090,
      "Ġproblems": 3091,
      "Ġdynamic": 3092,
      "Ġnote": 3093,
      "Ġnormal": 3094,
      "/p": 3095,
      "Ġstate": 3096,
      "iss": 3097,
      "Ġprom": 3098,
      "ustom": 3099,
      "Ġsaid": 3100,
      "fopen": 3101,
      "Ġuseful": 3102,
      "aced": 3103,
      "Stack": 3104,
      "34": 3105,
      "NT": 3106,
      "Ġscreen": 3107,
      "Ġbar": 3108,
      "orrect": 3109,
      "Ġobjects": 3110,
      "OP": 3111,
      "Ġmess": 3112,
      "Ġways": 3113,
      "Ġstorage": 3114,
      "gdb": 3115,
      "Ġspecial": 3116,
      "det": 3117,
      "thers": 3118,
      "Ġchanges": 3119,
      "Ġpython": 3120,
      "day": 3121,
      "Ġguide": 3122,
      "Example": 3123,
      "Ġdigit": 3124,
      "would": 3125,
      "Ġrow": 3126,
      "Ġimplic": 3127,
      "/b": 3128,
      "Ptr": 3129,
      "_get": 3130,
      "Ġembed": 3131,
      "Ġexce": 3132,
      "Ġindic": 3133,
      "Ġbeginning": 3134,
      "Ġrepresentation": 3135,
      "Ġgetchar": 3136,
      "Ġweb": 3137,
      "Make": 3138,
      "Ġbook": 3139,
      "Ġconverted": 3140,
      "Ġdepends": 3141,
      "Ġstarting": 3142,
      "Ġpurpose": 3143,
      "only": 3144,
      "Ġred": 3145,
      "plit": 3146,
      "TH": 3147,
      "-d": 3148,
      "After": 3149,
      "linux": 3150,
      "Ġinterest": 3151,
      ">>": 3152,
      "Ġsnipp": 3153,
      "ĠĠĠĠĠĠĠĠĠĠ": 3154,
      "Ġexamples": 3155,
      "ĠDoes": 3156,
      "Ġachieve": 3157,
      "_e": 3158,
      "ased": 3159,
      "col": 3160,
      "istr": 3161,
      "ĠCode": 3162,
      "OL": 3163,
      "Using": 3164,
      "opt": 3165,
      "Ġheaders": 3166,
      "Ġdetermine": 3167,
      "Ġothers": 3168,
      "Ġcomes": 3169,
      "spon": 3170,
      "des": 3171,
      "edia": 3172,
      "Ġasking": 3173,
      "Ġlearning": 3174,
      "66": 3175,
      "object": 3176,
      "uration": 3177,
      "exit": 3178,
      "acter": 3179,
      "ls": 3180,
      "ently": 3181,
      "Ġfre": 3182,
      "itect": 3183,
      "Ġalign": 3184,
      "eger": 3185,
      "Possible": 3186,
      "NS": 3187,
      "_file": 3188,
      "uous": 3189,
      "edence": 3190,
      "Ġstrcpy": 3191,
      "writ": 3192,
      "Ġdynamically": 3193,
      "Ġcomplex": 3194,
      "undefined": 3195,
      "Ġplay": 3196,
      "Ġflags": 3197,
      "Ġlead": 3198,
      "itecture": 3199,
      "-p": 3200,
      "Ġmask": 3201,
      "Ġhello": 3202,
      "Ġnewline": 3203,
      "Ġstructures": 3204,
      "_IN": 3205,
      "Ġbo": 3206,
      "Ġinde": 3207,
      "Ġallocation": 3208,
      "create": 3209,
      "most": 3210,
      "Ġfin": 3211,
      "Ġamount": 3212,
      "=(": 3213,
      "Ġtask": 3214,
      "Ġinc": 3215,
      "exec": 3216,
      "fork": 3217,
      "Ġgenerated": 3218,
      "DB": 3219,
      "bool": 3220,
      "Ġseconds": 3221,
      "ank": 3222,
      "Ġputs": 3223,
      "Ġfp": 3224,
      "ĠAN": 3225,
      "Ġchecking": 3226,
      "Ġparen": 3227,
      "LAGS": 3228,
      "):": 3229,
      "90": 3230,
      "First": 3231,
      "IR": 3232,
      "Object": 3233,
      "ms": 3234,
      "Ġfolder": 3235,
      "unch": 3236,
      "erson": 3237,
      "sscanf": 3238,
      "Ġprotot": 3239,
      "ĠAlso": 3240,
      "Ġtotal": 3241,
      "Ġarithmetic": 3242,
      "Ġunderstanding": 3243,
      "Ġtransl": 3244,
      "Ġextra": 3245,
      "Are": 3246,
      "Ġcolumn": 3247,
      "},": 3248,
      "Ġcenter": 3249,
      "Ġpipe": 3250,
      "Ġspaces": 3251,
      "QL": 3252,
      "Ġgoes": 3253,
      "/g": 3254,
      "nprintf": 3255,
      "Ġrequires": 3256,
      "Number": 3257,
      "ĠPr": 3258,
      "bytes": 3259,
      "Ġhappening": 3260,
      ":Closed": 3261,
      "Function": 3262,
      "TK": 3263,
      "max": 3264,
      "sure": 3265,
      "Ġtab": 3266,
      "arb": 3267,
      "Ġinsert": 3268,
      "IC": 3269,
      "Time": 3270,
      "[^": 3271,
      "cimal": 3272,
      "oi": 3273,
      "Ġbro": 3274,
      "itive": 3275,
      "(buffer": 3276,
      "ources": 3277,
      "[])Ċ": 3278,
      "FFFF": 3279,
      "Ġbasically": 3280,
      "ĠInt": 3281,
      "ately": 3282,
      "ĠOverflow": 3283,
      "Update": 3284,
      "')Ċ": 3285,
      "Ass": 3286,
      "lie": 3287,
      "Ġimplemented": 3288,
      "check": 3289,
      "Ġrespon": 3290,
      "Ġcorrespon": 3291,
      "header": 3292,
      "Ġbad": 3293,
      "Ġduring": 3294,
      "ounds": 3295,
      "_size": 3296,
      "Ġcur": 3297,
      "red": 3298,
      "Ġyes": 3299,
      "Ġproperly": 3300,
      "(t": 3301,
      "Ġextract": 3302,
      "complete": 3303,
      "yg": 3304,
      "Ġchars": 3305,
      "exp": 3306,
      "****": 3307,
      "Ġcomments": 3308,
      "_set": 3309,
      "Ġstatus": 3310,
      "Ġreceiv": 3311,
      ".x": 3312,
      "IP": 3313,
      "\\\\": 3314,
      "nc": 3315,
      "Ġsitu": 3316,
      "ĠĠĠĊ": 3317,
      "local": 3318,
      "_list": 3319,
      "Ġinit": 3320,
      "Ġgdb": 3321,
      "Window": 3322,
      "Ġstatements": 3323,
      "Ġwarnings": 3324,
      "Ġefficient": 3325,
      "Ġnamed": 3326,
      "stack": 3327,
      "etimes": 3328,
      "Ġstrtok": 3329,
      "Ġexists": 3330,
      ")*": 3331,
      "Ġpointing": 3332,
      "libc": 3333,
      "EE": 3334,
      "sql": 3335,
      ",v": 3336,
      "sprintf": 3337,
      "Ġsnippet": 3338,
      "ĠDuplicate": 3339,
      "Ġstarted": 3340,
      "Ġfixed": 3341,
      "LD": 3342,
      "after": 3343,
      "sent": 3344,
      "Ġsent": 3345,
      "Ġcare": 3346,
      "ints": 3347,
      "icult": 3348,
      "Ġsymbols": 3349,
      "med": 3350,
      "Ġpe": 3351,
      "Ġmon": 3352,
      "ĠStr": 3353,
      ")is": 3354,
      "ĠNo": 3355,
      "Ġscan": 3356,
      "alle": 3357,
      "Ġrest": 3358,
      "strcmp": 3359,
      "999": 3360,
      "Ġarchitecture": 3361,
      "ĠCon": 3362,
      "Ġotherwise": 3363,
      "Ġdifficult": 3364,
      "ards": 3365,
      "));": 3366,
      "ĠIDE": 3367,
      "cry": 3368,
      "INE": 3369,
      "Ġreceive": 3370,
      "At": 3371,
      "Ġtutorial": 3372,
      "Ġallows": 3373,
      "Ġperformance": 3374,
      "/include": 3375,
      "Ġfd": 3376,
      "04": 3377,
      "example": 3378,
      "Ġprecision": 3379,
      "ves": 3380,
      "ĠObject": 3381,
      "args": 3382,
      "OM": 3383,
      "Ġsomewhere": 3384,
      "field": 3385,
      "ps": 3386,
      "Ġbelie": 3387,
      "();": 3388,
      "Ġalong": 3389,
      "Ġlearn": 3390,
      "[])": 3391,
      "Ġcomputer": 3392,
      "Ġparenthes": 3393,
      "('": 3394,
      "US": 3395,
      "just": 3396,
      "priate": 3397,
      "Ġprecedence": 3398,
      "Ġrelated": 3399,
      "seek": 3400,
      "';": 3401,
      "ION": 3402,
      "Not": 3403,
      "ands": 3404,
      "produ": 3405,
      "())": 3406,
      "Ġreads": 3407,
      "]is": 3408,
      "bl": 3409,
      "ĠMS": 3410,
      "address": 3411,
      "ATH": 3412,
      "Ġignore": 3413,
      "_V": 3414,
      "ng": 3415,
      "Ġperm": 3416,
      "Ġlow": 3417,
      "aybe": 3418,
      "idd": 3419,
      "arent": 3420,
      "Ġaddresses": 3421,
      "Ġdescrib": 3422,
      ",c": 3423,
      "Wall": 3424,
      "haps": 3425,
      "ike": 3426,
      "Ġcop": 3427,
      "lean": 3428,
      "Ġunion": 3429,
      "abel": 3430,
      "Ġfprintf": 3431,
      "before": 3432,
      "tual": 3433,
      "rep": 3434,
      "Ġoutside": 3435,
      "ache": 3436,
      "Ġcommands": 3437,
      "/t": 3438,
      "Ġcouldn": 3439,
      "(argv": 3440,
      "Ġshall": 3441,
      "ĠPlease": 3442,
      "));ĊĊ": 3443,
      "_A": 3444,
      "ended": 3445,
      "Ġmove": 3446,
      "case": 3447,
      "Ġco": 3448,
      "Ġreach": 3449,
      "Ġbloc": 3450,
      "termin": 3451,
      "Ġpractice": 3452,
      "errupt": 3453,
      "ese": 3454,
      "ocs": 3455,
      "ĠGNU": 3456,
      "Ġstdout": 3457,
      "Ġbelieve": 3458,
      "br": 3459,
      "details": 3460,
      "Ġspe": 3461,
      "off": 3462,
      "Ġdebugging": 3463,
      "26": 3464,
      "37": 3465,
      "_int": 3466,
      ",int": 3467,
      "Ġcompiles": 3468,
      "Ġmaybe": 3469,
      "Ġexternal": 3470,
      "Ġmentioned": 3471,
      "arbage": 3472,
      "Ġsk": 3473,
      "Ġmath": 3474,
      "Ġappears": 3475,
      "Ġexplicitly": 3476,
      ".)Ċ": 3477,
      "Ġincomplete": 3478,
      "Ġlonger": 3479,
      "ATE": 3480,
      "Ġclarity": 3481,
      "apt": 3482,
      "expect": 3483,
      "ĠNow": 3484,
      "ired": 3485,
      "Ġmaximum": 3486,
      "/usr": 3487,
      "Let": 3488,
      "ferenc": 3489,
      "Ġhash": 3490,
      "Ġmanag": 3491,
      "FLAGS": 3492,
      "Some": 3493,
      "\\x": 3494,
      "Ġdue": 3495,
      "Ġdate": 3496,
      "Ġknown": 3497,
      "(buf": 3498,
      "Ġappropriate": 3499,
      "~~": 3500,
      "Ġfgets": 3501,
      "iven": 3502,
      "====": 3503,
      "\";": 3504,
      "500": 3505,
      "ople": 3506,
      "Ġfil": 3507,
      "Ġref": 3508,
      "AND": 3509,
      "\".Ċ": 3510,
      "One": 3511,
      "dr": 3512,
      "Ġ\"\\": 3513,
      "Ġusage": 3514,
      "Ġstructs": 3515,
      "atile": 3516,
      "aaaa": 3517,
      "Ġobvious": 3518,
      ".b": 3519,
      "Ġfilename": 3520,
      "ĠSee": 3521,
      "Ġprovided": 3522,
      "21": 3523,
      "29": 3524,
      "min": 3525,
      "ffect": 3526,
      "sec": 3527,
      "Which": 3528,
      "Ġsupported": 3529,
      "Ġfailed": 3530,
      "ew": 3531,
      "urther": 3532,
      "54": 3533,
      "ĠMAX": 3534,
      "_SE": 3535,
      "ci": 3536,
      "wait": 3537,
      "Ġyet": 3538,
      "class": 3539,
      "olatile": 3540,
      ".,": 3541,
      "Open": 3542,
      "_addr": 3543,
      "Ġhaven": 3544,
      "plus": 3545,
      "Ġmembers": 3546,
      "fr": 3547,
      "vant": 3548,
      "Ġdest": 3549,
      "Input": 3550,
      "Ġmanual": 3551,
      "Ġcalculate": 3552,
      "TP": 3553,
      "attern": 3554,
      "Ġtog": 3555,
      "Ġrele": 3556,
      "ĠSince": 3557,
      "ptions": 3558,
      "28": 3559,
      "ah": 3560,
      ".ĊĊĊĊ": 3561,
      "irection": 3562,
      "because": 3563,
      "ipedia": 3564,
      "Ġlanguages": 3565,
      "IF": 3566,
      "Ġok": 3567,
      "ĠST": 3568,
      "Ġabs": 3569,
      "env": 3570,
      "ĠID": 3571,
      "etc": 3572,
      "andle": 3573,
      "imer": 3574,
      "ĠNode": 3575,
      "Ġoperating": 3576,
      "ites": 3577,
      "iguous": 3578,
      "fort": 3579,
      "ĠWorld": 3580,
      "sa": 3581,
      "ĠY": 3582,
      "Ġexcept": 3583,
      "ĠSO": 3584,
      "Ġaccording": 3585,
      "Ġcontinue": 3586,
      ";j": 3587,
      "cd": 3588,
      "Ġcore": 3589,
      "Ġlower": 3590,
      "entially": 3591,
      "Ġyourself": 3592,
      "ĠMac": 3593,
      "ORD": 3594,
      "Comp": 3595,
      "fect": 3596,
      "rt": 3597,
      "ĠSD": 3598,
      "Could": 3599,
      "OW": 3600,
      "know": 3601,
      "Ġass": 3602,
      "Ġconstruct": 3603,
      "Where": 3604,
      "qual": 3605,
      "ĠMake": 3606,
      "Ġbug": 3607,
      "omm": 3608,
      "Ġsys": 3609,
      "Ġcomparison": 3610,
      "49": 3611,
      "gal": 3612,
      "enum": 3613,
      "Ġret": 3614,
      "irtual": 3615,
      ",y": 3616,
      "GE": 3617,
      "run": 3618,
      "view": 3619,
      "ĠWin": 3620,
      "Ġinitialization": 3621,
      "Ġembedded": 3622,
      "_data": 3623,
      "Ġcustom": 3624,
      "Ġwrapp": 3625,
      "agma": 3626,
      "Ġincre": 3627,
      "Ġalternative": 3628,
      "Ġportable": 3629,
      "_ptr": 3630,
      "df": 3631,
      "mm": 3632,
      "pped": 3633,
      "Char": 3634,
      "(j": 3635,
      "unic": 3636,
      "true": 3637,
      "Ġconfig": 3638,
      "(array": 3639,
      "LEN": 3640,
      "root": 3641,
      "ey": 3642,
      "math": 3643,
      "Ġsplit": 3644,
      "enu": 3645,
      "Ġ(!": 3646,
      "KE": 3647,
      "Ġtmp": 3648,
      "attribute": 3649,
      "Ġdist": 3650,
      "Ġproc": 3651,
      "puts": 3652,
      "ending": 3653,
      "ĠEclipse": 3654,
      "Ġliterals": 3655,
      "inks": 3656,
      "icle": 3657,
      "ĠThey": 3658,
      "config": 3659,
      "\\t": 3660,
      "Ġthird": 3661,
      "Ġperfect": 3662,
      "iers": 3663,
      "Ġtree": 3664,
      "ĠUnix": 3665,
      "=%": 3666,
      "Ġchanging": 3667,
      "Ġdriver": 3668,
      "Ġdont": 3669,
      "110": 3670,
      "Ġguaranteed": 3671,
      ",visit": 3672,
      "itle": 3673,
      "Ġgarbage": 3674,
      "adecimal": 3675,
      "?Add": 3676,
      "Ġneedsdetails": 3677,
      "ulate": 3678,
      "Ġsignific": 3679,
      "fault": 3680,
      "lay": 3681,
      "ccording": 3682,
      "Ġdivision": 3683,
      "_struct": 3684,
      "Ġproduce": 3685,
      "ĠObjective": 3686,
      "36": 3687,
      "uppose": 3688,
      "Ġbuff": 3689,
      "Ġhost": 3690,
      "igit": 3691,
      "Ġdeal": 3692,
      "argc": 3693,
      "Ġdraw": 3694,
      "Ġprototype": 3695,
      "cap": 3696,
      "Ġthus": 3697,
      "Ġsl": 3698,
      "Ġchoo": 3699,
      "Create": 3700,
      "ueue": 3701,
      "than": 3702,
      "ixel": 3703,
      "caten": 3704,
      "ĠProgram": 3705,
      "Ġnetwork": 3706,
      "Ġsleep": 3707,
      "Ġfunctional": 3708,
      "Ġentry": 3709,
      "cape": 3710,
      "initialized": 3711,
      "ML": 3712,
      "_string": 3713,
      "().ĊĊ": 3714,
      "Ġpresent": 3715,
      "Ġgreater": 3716,
      "Ġcorresponding": 3717,
      "27": 3718,
      "warning": 3719,
      "ins": 3720,
      "_to": 3721,
      "eb": 3722,
      "Ġreprodu": 3723,
      "Ġbitwise": 3724,
      "Ġoutputs": 3725,
      "Ġhandler": 3726,
      "Ġregard": 3727,
      "Ġswap": 3728,
      ")+": 3729,
      ".I": 3730,
      "_str": 3731,
      "ais": 3732,
      "wo": 3733,
      "Ġvector": 3734,
      "character": 3735,
      "Ġthanks": 3736,
      "Ġdelete": 3737,
      "sc": 3738,
      "Ġnative": 3739,
      "Ġprop": 3740,
      "Ġtrouble": 3741,
      "Ġshouldn": 3742,
      "Ġsaw": 3743,
      "(d": 3744,
      ":How": 3745,
      "Ġstud": 3746,
      "*,": 3747,
      "asically": 3748,
      "Ġidentifier": 3749,
      "TF": 3750,
      "second": 3751,
      "pping": 3752,
      ".cpp": 3753,
      "---": 3754,
      "Ġgraph": 3755,
      "Ġsituation": 3756,
      "35": 3757,
      "Ġfut": 3758,
      "Ġpid": 3759,
      "grind": 3760,
      "Ġcreates": 3761,
      "Ġenable": 3762,
      "Ġeasily": 3763,
      "GW": 3764,
      "Ġfill": 3765,
      "Ġeasier": 3766,
      "Ġhigher": 3767,
      "#ifdef": 3768,
      "oy": 3769,
      "Ġretr": 3770,
      "files": 3771,
      "locks": 3772,
      "Ġanal": 3773,
      "Ġunit": 3774,
      "ĠĠĠĠĠĠĠĠĠĠĠĠ": 3775,
      "short": 3776,
      "board": 3777,
      "Ġmessages": 3778,
      "){": 3779,
      "Ġtaking": 3780,
      "urses": 3781,
      "hi": 3782,
      "zero": 3783,
      "();ĊĊ": 3784,
      "ĠSIG": 3785,
      "Ġmanually": 3786,
      "ross": 3787,
      "SIG": 3788,
      "Ġagainst": 3789,
      "Ġincludes": 3790,
      "doesn": 3791,
      "Program": 3792,
      "Ġsupports": 3793,
      "Ġfaster": 3794,
      "*sizeof": 3795,
      "-time": 3796,
      "into": 3797,
      "Ġdump": 3798,
      "Ġstyle": 3799,
      "_init": 3800,
      "means": 3801,
      "Ġbroad": 3802,
      "(double": 3803,
      "Ġreopen": 3804,
      "Ġtrick": 3805,
      "Ġreferences": 3806,
      "Ġiteration": 3807,
      ",%": 3808,
      "sem": 3809,
      "Ġexisting": 3810,
      "mediate": 3811,
      "[n": 3812,
      "^^": 3813,
      "Ġlinking": 3814,
      "Ġintr": 3815,
      "Ġprevent": 3816,
      "ĠUse": 3817,
      "ocol": 3818,
      "ability": 3819,
      "\";ĊĊ": 3820,
      "graph": 3821,
      "Ġlogic": 3822,
      "Ġsuccessfully": 3823,
      "crypt": 3824,
      "Ġfuture": 3825,
      "=c": 3826,
      "Ġunless": 3827,
      "%s": 3828,
      "YPE": 3829,
      "]ĊĊ": 3830,
      "ior": 3831,
      "lex": 3832,
      "ĠFile": 3833,
      "Ġworked": 3834,
      "functions": 3835,
      "without": 3836,
      "works": 3837,
      "Ġpacket": 3838,
      "Process": 3839,
      "ODE": 3840,
      "Ġquick": 3841,
      "Ġpeople": 3842,
      "therwise": 3843,
      "dup": 3844,
      "Ġdereference": 3845,
      "');Ċ": 3846,
      "Len": 3847,
      "MB": 3848,
      "mit": 3849,
      "arily": 3850,
      "why": 3851,
      "Ġentered": 3852,
      "ann": 3853,
      "(fd": 3854,
      "Ġterminated": 3855,
      "Ġpossibly": 3856,
      "more": 3857,
      "ters": 3858,
      "Ġsrc": 3859,
      "Ġmethods": 3860,
      "Check": 3861,
      "Ġassuming": 3862,
      "Test": 3863,
      "XX": 3864,
      "_SIZE": 3865,
      "uni": 3866,
      "456": 3867,
      ",j": 3868,
      "Ġremo": 3869,
      "arger": 3870,
      "ency": 3871,
      "Ġcontaining": 3872,
      "AP": 3873,
      "ktop": 3874,
      "signal": 3875,
      "Ġsaying": 3876,
      "Ġsockets": 3877,
      "Ġoften": 3878,
      "Ġcommunic": 3879,
      "Ġexper": 3880,
      "ibrary": 3881,
      "Ġpropert": 3882,
      "ĠTCP": 3883,
      "LIB": 3884,
      "(...": 3885,
      "Ġmeet": 3886,
      "memset": 3887,
      "Ġclean": 3888,
      "Ġplatforms": 3889,
      "OO": 3890,
      "Windows": 3891,
      "Ġconcaten": 3892,
      "Pointer": 3893,
      "Ġinstructions": 3894,
      "(my": 3895,
      "egr": 3896,
      "Ġremain": 3897,
      "Ġdev": 3898,
      "Ġdatabase": 3899,
      "points": 3900,
      "Wr": 3901,
      "](": 3902,
      "_RE": 3903,
      "arm": 3904,
      "Ġ*.": 3905,
      ":What": 3906,
      "EOF": 3907,
      "Ġsch": 3908,
      "Ġmutex": 3909,
      "quare": 3910,
      ")?Ċ": 3911,
      "Ġthinking": 3912,
      "Ġcons": 3913,
      "++.": 3914,
      "Ġanybody": 3915,
      "udo": 3916,
      "Ġquot": 3917,
      "Ġkeyword": 3918,
      "Ġprovides": 3919,
      "Ġcompletely": 3920,
      "85": 3921,
      "_st": 3922,
      "Ġfails": 3923,
      "obj": 3924,
      "BUG": 3925,
      "(v": 3926,
      "/bin": 3927,
      "Ġpast": 3928,
      "Ġanyway": 3929,
      "Ġexpressions": 3930,
      "Ġdepending": 3931,
      "400": 3932,
      "fprintf": 3933,
      "yz": 3934,
      "Ġfclose": 3935,
      "pragma": 3936,
      "Ġrout": 3937,
      "Ġsometimes": 3938,
      "Ġtherefore": 3939,
      "Ġversions": 3940,
      "compatible": 3941,
      "_create": 3942,
      "sl": 3943,
      "Ġround": 3944,
      "lies": 3945,
      "cont": 3946,
      "ublic": 3947,
      "Ġcasting": 3948,
      "Ġconsidered": 3949,
      "expected": 3950,
      "UP": 3951,
      "Ġip": 3952,
      "ities": 3953,
      "asm": 3954,
      "ithub": 3955,
      "(\"/": 3956,
      "Ġgenerally": 3957,
      "adding": 3958,
      "Ġissues": 3959,
      "Ġaccom": 3960,
      "(A": 3961,
      "011": 3962,
      "UI": 3963,
      "\\\"": 3964,
      "Ġdesign": 3965,
      "Ġprogramm": 3966,
      "Ġenc": 3967,
      "Ġendian": 3968,
      "Ġreopened": 3969,
      "(line": 3970,
      "Buffer": 3971,
      "Res": 3972,
      "curl": 3973,
      "fscanf": 3974,
      "source": 3975,
      "Ġreverse": 3976,
      "strn": 3977,
      "Ġshown": 3978,
      "Ġut": 3979,
      "Ġexplan": 3980,
      "Ġhexadecimal": 3981,
      "known": 3982,
      "77": 3983,
      "PRO": 3984,
      "ttp": 3985,
      "Ġpa": 3986,
      "Ġpattern": 3987,
      "Ġcolor": 3988,
      "Ġfunctionality": 3989,
      "!!": 3990,
      "'.": 3991,
      "OUT": 3992,
      "Ġlarger": 3993,
      "Ġ*,": 3994,
      "Ġpop": 3995,
      "Ġarea": 3996,
      "Ġknows": 3997,
      "ĠUbuntu": 3998,
      "Assuming": 3999,
      "Âł": 4000,
      "ren": 4001,
      "Ġsignificant": 4002,
      "(arr": 4003,
      "Us": 4004,
      "cast": 4005,
      "inGW": 4006,
      "orry": 4007,
      "Ġinfin": 4008,
      "strtok": 4009,
      "tract": 4010,
      "getc": 4011,
      "+=": 4012,
      "Ġpower": 4013,
      "cho": 4014,
      "ume": 4015,
      "place": 4016,
      "olute": 4017,
      "ĠYour": 4018,
      "Ġobtain": 4019,
      "ES": 4020,
      "cs": 4021,
      "Ġcoding": 4022,
      "Ġbind": 4023,
      "Ġmodified": 4024,
      "/man": 4025,
      "(string": 4026,
      "IO": 4027,
      "sequ": 4028,
      "Ġexec": 4029,
      "cription": 4030,
      "Ġgroup": 4031,
      "SSL": 4032,
      "gl": 4033,
      "Ġfour": 4034,
      "Ġcodes": 4035,
      "aving": 4036,
      "ĠGTK": 4037,
      "init": 4038,
      "Ġcross": 4039,
      "Ġva": 4040,
      "ĠAll": 4041,
      "Ġimmediate": 4042,
      "Ġdereferenc": 4043,
      "Ġvarious": 4044,
      "(C": 4045,
      "Linux": 4046,
      "src": 4047,
      "debug": 4048,
      "strict": 4049,
      ".net": 4050,
      "Thread": 4051,
      "izes": 4052,
      "Ġconc": 4053,
      "Ġsuff": 4054,
      "getchar": 4055,
      "library": 4056,
      "Ġopened": 4057,
      "Ġsearching": 4058,
      "Ġfields": 4059,
      "We": 4060,
      "row": 4061,
      "Ġinline": 4062,
      "sword": 4063,
      "values": 4064,
      "Ġbooks": 4065,
      "Ġrules": 4066,
      "])Ċ": 4067,
      "Ġmyself": 4068,
      "Ġmemcpy": 4069,
      "Ġencounter": 4070,
      "Ġyear": 4071,
      "CHAR": 4072,
      "44": 4073,
      ":https": 4074,
      "FA": 4075,
      "ience": 4076,
      "ticle": 4077,
      "ĠAR": 4078,
      "stdin": 4079,
      "Ġrespect": 4080,
      "Info": 4081,
      "Ġassigning": 4082,
      "(h": 4083,
      ")->": 4084,
      "Ġbody": 4085,
      "Ġimplementations": 4086,
      "Ġstarts": 4087,
      "Ġinitializer": 4088,
      "Ġappear": 4089,
      "Suppose": 4090,
      "ness": 4091,
      "Ġdimension": 4092,
      "Ġnumer": 4093,
      "_type": 4094,
      "Ġdeclaring": 4095,
      "Ġfinish": 4096,
      "]);": 4097,
      "ems": 4098,
      "().Ċ": 4099,
      "ivate": 4100,
      "Ġletter": 4101,
      "?Update": 4102,
      "home": 4103,
      "Ġfoc": 4104,
      "Ġmeant": 4105,
      "ĠRe": 4106,
      "ĠJust": 4107,
      "aphore": 4108,
      "Ġcaused": 4109,
      "Ġguidelines": 4110,
      "Ġtag": 4111,
      "ĠGet": 4112,
      "ĠTry": 4113,
      "Something": 4114,
      "mt": 4115,
      "Ġaware": 4116,
      "Ġsimpl": 4117,
      "space": 4118,
      "ĠArray": 4119,
      "Ġincorrect": 4120,
      ",i": 4121,
      "CD": 4122,
      "IS": 4123,
      "Ġsock": 4124,
      "Ġbool": 4125,
      "Ġlock": 4126,
      "eturn": 4127,
      "Ġ(\"%": 4128,
      "Ġinterrupt": 4129,
      "\",Ċ": 4130,
      "irc": 4131,
      "argument": 4132,
      "Ġapplications": 4133,
      "Ġperfectly": 4134,
      "GCC": 4135,
      "types": 4136,
      "onent": 4137,
      "Ġones": 4138,
      "ĠAn": 4139,
      "Ġamb": 4140,
      "Ġmakefile": 4141,
      "Ġplaces": 4142,
      "Ġends": 4143,
      "Ġdeclarations": 4144,
      "Ġadditional": 4145,
      "unistd": 4146,
      "_a": 4147,
      "Ġty": 4148,
      "dest": 4149,
      "unately": 4150,
      "wiki": 4151,
      "Ġimplicit": 4152,
      ")?": 4153,
      "oun": 4154,
      "acing": 4155,
      "Ġhardware": 4156,
      "allel": 4157,
      "-to": 4158,
      "OB": 4159,
      "WORD": 4160,
      "ias": 4161,
      "Ġour": 4162,
      "Ġ{\"": 4163,
      "Ġapply": 4164,
      "..Ċ": 4165,
      "LINE": 4166,
      "uilt": 4167,
      "ination": 4168,
      "Ġsprintf": 4169,
      "isible": 4170,
      "Ġremember": 4171,
      "Ġchoose": 4172,
      "$(": 4173,
      "65": 4174,
      "Ġmist": 4175,
      "ised": 4176,
      "utes": 4177,
      "Ġtrack": 4178,
      "Ġqueue": 4179,
      "[],": 4180,
      "Ġloops": 4181,
      "echo": 4182,
      "Ġinterested": 4183,
      "thanks": 4184,
      "_re": 4185,
      "_function": 4186,
      "bt": 4187,
      "right": 4188,
      "omic": 4189,
      "client": 4190,
      "ĠWith": 4191,
      "Ġpackage": 4192,
      "Ġescape": 4193,
      "Count": 4194,
      "EC": 4195,
      "VM": 4196,
      "fc": 4197,
      "âĶ": 4198,
      "unk": 4199,
      "lied": 4200,
      "ART": 4201,
      "(!": 4202,
      "uss": 4203,
      "Ġever": 4204,
      "Ġsomehow": 4205,
      "ĠVS": 4206,
      "Ġfeel": 4207,
      ")-": 4208,
      "_ST": 4209,
      "fl": 4210,
      "eto": 4211,
      "Ġjava": 4212,
      "ague": 4213,
      "Ġmanip": 4214,
      "Ġsuggestions": 4215,
      "Ġfam": 4216,
      "Ġintegr": 4217,
      "Ġdefines": 4218,
      "Ġ[-": 4219,
      "Ġsolutions": 4220,
      "Consider": 4221,
      "\")Ċ": 4222,
      "(unsigned": 4223,
      "-st": 4224,
      "CRO": 4225,
      "fs": 4226,
      "||": 4227,
      "Ġvirtual": 4228,
      "trl": 4229,
      "Ġcauses": 4230,
      "Ġassoc": 4231,
      "PS": 4232,
      "cv": 4233,
      "her": 4234,
      "msg": 4235,
      "tol": 4236,
      "Ġmind": 4237,
      "Ġcho": 4238,
      "Ġargs": 4239,
      "Ġdisable": 4240,
      "ĠHT": 4241,
      "Ġterminate": 4242,
      "Ġreport": 4243,
      "Given": 4244,
      "cout": 4245,
      "ories": 4246,
      "Ġuninitialized": 4247,
      "ĠString": 4248,
      "ĠmeetStack": 4249,
      "az": 4250,
      "Ġtm": 4251,
      "Ġwish": 4252,
      "Ġmsg": 4253,
      "Ġterms": 4254,
      "Change": 4255,
      ".S": 4256,
      "Func": 4257,
      "Ġview": 4258,
      "prog": 4259,
      "ogn": 4260,
      "Ġconstants": 4261,
      "ĠANSI": 4262,
      ",\"%": 4263,
      "AA": 4264,
      "EST": 4265,
      "SH": 4266,
      "option": 4267,
      "Ġstuck": 4268,
      "Ġraw": 4269,
      "Ġcomma": 4270,
      "Ġmultip": 4271,
      "fortunately": 4272,
      "core": 4273,
      "fun": 4274,
      "ret": 4275,
      "Ġflush": 4276,
      "plish": 4277,
      "Ġupdate": 4278,
      "Ġdisk": 4279,
      "Ġdebugger": 4280,
      "Ġtogether": 4281,
      "ene": 4282,
      "search": 4283,
      "mentation": 4284,
      "Ġexpecting": 4285,
      "Address": 4286,
      "Ġprotocol": 4287,
      "ROR": 4288,
      "VC": 4289,
      "_read": 4290,
      "part": 4291,
      "Ġcap": 4292,
      "order": 4293,
      "orical": 4294,
      "ĠComp": 4295,
      "Ġonline": 4296,
      "Ġcallback": 4297,
      "Ġtwice": 4298,
      "Ġensure": 4299,
      "anguage": 4300,
      "Ġrepresented": 4301,
      "Ġevaluate": 4302,
      "Ġaccomplish": 4303,
      "Ġexplanation": 4304,
      "rl": 4305,
      "Ġdat": 4306,
      "ments": 4307,
      "ĠĠĠĠĠĠĠĠĠĠĠĠĠ": 4308,
      "ideo": 4309,
      "Ġexecuting": 4310,
      "(in": 4311,
      "Current": 4312,
      "SA": 4313,
      "Ġvague": 4314,
      "Ġusers": 4315,
      "Ġaren": 4316,
      "Ġwouldn": 4317,
      "condition": 4318,
      "Ġsuppose": 4319,
      "Ġheight": 4320,
      "Ġpermiss": 4321,
      "(ptr": 4322,
      "ĠAfter": 4323,
      "âĢĿ": 4324,
      "Ġblocks": 4325,
      "(name": 4326,
      "08": 4327,
      "LY": 4328,
      "mon": 4329,
      "Ġnice": 4330,
      "entry": 4331,
      "Ġregular": 4332,
      "Ġtal": 4333,
      "ĠMY": 4334,
      "Ġinputs": 4335,
      "Ġtesting": 4336,
      "ĠĠĠĠĠĠĠĠĠĠĠĠĠĠĠĠĠĠĠĠĠĠĠĠĠĠĠĠĠĠĠĠ": 4337,
      "Ġbecomes": 4338,
      "Ġambiguous": 4339,
      "_STR": 4340,
      "nu": 4341,
      "there": 4342,
      "Ġfollowed": 4343,
      "Ġparentheses": 4344,
      "Ġimmediately": 4345,
      "rb": 4346,
      "ctl": 4347,
      "emory": 4348,
      "Ġran": 4349,
      "LOCK": 4350,
      "(input": 4351,
      "03": 4352,
      "HP": 4353,
      "dis": 4354,
      "qrt": 4355,
      "Ġ]": 4356,
      "Ġtreat": 4357,
      "Ġaffect": 4358,
      "amp": 4359,
      "verting": 4360,
      "pper": 4361,
      "ĠSome": 4362,
      "Ġputchar": 4363,
      "CL": 4364,
      "Call": 4365,
      "son": 4366,
      "Ġmark": 4367,
      "127": 4368,
      "Ġwrites": 4369,
      "Ġsignature": 4370,
      "compile": 4371,
      "ification": 4372,
      "Ġexception": 4373,
      "cii": 4374,
      "Ġinfinite": 4375,
      "07": 4376,
      "SL": 4377,
      "oin": 4378,
      "pack": 4379,
      "Ġ..": 4380,
      "Ġarticle": 4381,
      "Ġ\"-": 4382,
      "ĠDE": 4383,
      "CCE": 4384,
      "SDL": 4385,
      "*/Ċ": 4386,
      "Cl": 4387,
      "ying": 4388,
      "ĠÂ": 4389,
      "Ġfit": 4390,
      "Ġfurther": 4391,
      "Ġpadding": 4392,
      "ygwin": 4393,
      "Ġreceived": 4394,
      ".\\": 4395,
      "ndef": 4396,
      "ism": 4397,
      "clang": 4398,
      "ground": 4399,
      "Ġunable": 4400,
      "Ġspecifically": 4401,
      "Ġpositive": 4402,
      "-defined": 4403,
      "ALL": 4404,
      "MS": 4405,
      "Sim": 4406,
      "bb": 4407,
      "Ġconvent": 4408,
      "gex": 4409,
      "While": 4410,
      "Ġprocessor": 4411,
      "Point": 4412,
      "Ġabsolute": 4413,
      "gtk": 4414,
      "Ġvisual": 4415,
      "opert": 4416,
      "&&": 4417,
      "got": 4418,
      "Ġvi": 4419,
      "idget": 4420,
      "stroy": 4421,
      "Ġbutton": 4422,
      "ĠOne": 4423,
      "Ġclock": 4424,
      "Ġopening": 4425,
      "Ġdefinitions": 4426,
      "Ġrecommendations": 4427,
      "/re": 4428,
      "Ġfinal": 4429,
      "ĠSe": 4430,
      "aken": 4431,
      "Ġ:)Ċ": 4432,
      "wards": 4433,
      "Ġcopied": 4434,
      ":(": 4435,
      "CV": 4436,
      "Sh": 4437,
      "_node": 4438,
      "xFF": 4439,
      "Ġastruct": 4440,
      "Ġsur": 4441,
      "Ġdecide": 4442,
      "]={": 4443,
      "Ġ*/ĊĊ": 4444,
      "Ġalignment": 4445,
      ")?ĊĊ": 4446,
      "97": 4447,
      "_of": 4448,
      "mov": 4449,
      "Ġtre": 4450,
      "Ġrealloc": 4451,
      "chan": 4452,
      "ames": 4453,
      "imits": 4454,
      "_time": 4455,
      "pecific": 4456,
      "Ġchecked": 4457,
      "According": 4458,
      "aks": 4459,
      "Ġaway": 4460,
      "erc": 4461,
      "Ġpush": 4462,
      "Ġgtk": 4463,
      "ĠCould": 4464,
      "Ġconcept": 4465,
      "Ġatoi": 4466,
      "ips": 4467,
      "Ġclang": 4468,
      "Ġhandling": 4469,
      "ORT": 4470,
      "Ġoccurs": 4471,
      "Ġrelevant": 4472,
      "..ĊĊ": 4473,
      "/ĊĊ": 4474,
      "something": 4475,
      "level": 4476,
      "strcat": 4477,
      "Ġrh": 4478,
      "ĠPC": 4479,
      "Ġexpects": 4480,
      "Ġreasonably": 4481,
      "-termin": 4482,
      "Should": 4483,
      "_DE": 4484,
      "move": 4485,
      "vm": 4486,
      "your": 4487,
      "orr": 4488,
      "Ġbound": 4489,
      "und": 4490,
      "asp": 4491,
      "Ġmap": 4492,
      "GNU": 4493,
      "HE": 4494,
      "Text": 4495,
      "false": 4496,
      "ĠThank": 4497,
      "Ġdou": 4498,
      "Ġlinks": 4499,
      "Ġ\"/": 4500,
      "Ġsets": 4501,
      "Ġlooked": 4502,
      "Image": 4503,
      "ursor": 4504,
      "/x": 4505,
      "/en": 4506,
      "Be": 4507,
      "pa": 4508,
      "import": 4509,
      "pendent": 4510,
      "ATA": 4511,
      "OBJ": 4512,
      "*.": 4513,
      ",n": 4514,
      "/n": 4515,
      "DP": 4516,
      "RA": 4517,
      "mask": 4518,
      "Ġlay": 4519,
      "ivid": 4520,
      "Ġnormally": 4521,
      "Ġimportant": 4522,
      "Ġdep": 4523,
      "ĠDLL": 4524,
      "ĠWe": 4525,
      "ĠUTF": 4526,
      "Ġseeking": 4527,
      "memory": 4528,
      "Ġserial": 4529,
      "Ġreplaced": 4530,
      "ĠMakefile": 4531,
      "Tr": 4532,
      "foc": 4533,
      "vers": 4534,
      "Ġpure": 4535,
      "Ġgetch": 4536,
      "ĠNot": 4537,
      "angle": 4538,
      "ĠEX": 4539,
      "Ġresulting": 4540,
      "Ġ|=": 4541,
      "GB": 4542,
      "vp": 4543,
      "Ġdivide": 4544,
      "Ġinternal": 4545,
      "??Ċ": 4546,
      "[MAX": 4547,
      "Ġwhites": 4548,
      "Ġcompatible": 4549,
      "ĠSI": 4550,
      "stdout": 4551,
      "_mutex": 4552,
      "Ġfacts": 4553,
      "_w": 4554,
      "dk": 4555,
      "Ġfl": 4556,
      "Ġrepe": 4557,
      "ĠVal": 4558,
      "-top": 4559,
      ":Why": 4560,
      "Des": 4561,
      "Ġslow": 4562,
      "Ġcomb": 4563,
      "Ġparallel": 4564,
      "macro": 4565,
      "Ġspeed": 4566,
      "_con": 4567,
      "gives": 4568,
      "let": 4569,
      "*p": 4570,
      "/O": 4571,
      "aunch": 4572,
      "ear": 4573,
      "last": 4574,
      "andler": 4575,
      "Ġauth": 4576,
      "'ĊĊ": 4577,
      "(L": 4578,
      "Ġstrange": 4579,
      "ocumentation": 4580,
      ".)ĊĊ": 4581,
      "ino": 4582,
      "Ġpixel": 4583,
      "Ġappend": 4584,
      "05": 4585,
      "API": 4586,
      "DR": 4587,
      "Question": 4588,
      "uid": 4589,
      "left": 4590,
      "ĠIN": 4591,
      "Ġhope": 4592,
      "Ġalmost": 4593,
      "ĠAP": 4594,
      "ĠAre": 4595,
      "defin": 4596,
      "Ġjob": 4597,
      "conio": 4598,
      "Ġoverly": 4599,
      "bits": 4600,
      "Ġcopying": 4601,
      "Ġprompt": 4602,
      "aut": 4603,
      "Ġsscanf": 4604,
      "Ġpages": 4605,
      "ances": 4606,
      "otal": 4607,
      "Ġplug": 4608,
      "(float": 4609,
      "_NAME": 4610,
      "-m": 4611,
      "App": 4612,
      "Path": 4613,
      "current": 4614,
      "Ġtitle": 4615,
      "Ġdistr": 4616,
      "lying": 4617,
      "ĠBy": 4618,
      "Ġtypically": 4619,
      "Ġevaluates": 4620,
      "Ġresponse": 4621,
      "Ġconsist": 4622,
      "!\\": 4623,
      "Ġday": 4624,
      "oment": 4625,
      "iding": 4626,
      "Ġbuilding": 4627,
      "Ġsending": 4628,
      "Ġdownload": 4629,
      "#pragma": 4630,
      ".)": 4631,
      "/wiki": 4632,
      ">=": 4633,
      "[x": 4634,
      "xml": 4635,
      "Ġtech": 4636,
      "ster": 4637,
      "Ġsec": 4638,
      "Ġweird": 4639,
      "Ġaccessing": 4640,
      "Ġrecogn": 4641,
      "Ġconditional": 4642,
      "Ġsettings": 4643,
      "(size": 4644,
      "(gdb": 4645,
      "_id": 4646,
      "host": 4647,
      "ĠOK": 4648,
      "box": 4649,
      "Ġclarifying": 4650,
      "Ġbecome": 4651,
      "_start": 4652,
      "iend": 4653,
      "lection": 4654,
      "Ġperror": 4655,
      "etorical": 4656,
      "Ġver": 4657,
      "Ġcant": 4658,
      "Ġquery": 4659,
      "URCE": 4660,
      "queue": 4661,
      "(stdout": 4662,
      "Ġwrapper": 4663,
      "Ġrhetorical": 4664,
      ":C": 4665,
      "Ġcombin": 4666,
      "Ġarbit": 4667,
      "Ġsomebody": 4668,
      "Ġprojects": 4669,
      "expression": 4670,
      "Ġmonth": 4671,
      ",a": 4672,
      "_EX": 4673,
      "Ġcmd": 4674,
      "```ĊĊĊĊ": 4675,
      "ĠAt": 4676,
      "Ġcrashes": 4677,
      "Ġints": 4678,
      "Ġterminator": 4679,
      "Ġsearched": 4680,
      "#ifndef": 4681,
      "PT": 4682,
      "Qu": 4683,
      "RT": 4684,
      "Will": 4685,
      "_LEN": 4686,
      "sort": 4687,
      "Ġff": 4688,
      "Ġfscanf": 4689,
      "Ġmoment": 4690,
      "Ġhit": 4691,
      "Ġlvalue": 4692,
      "ivers": 4693,
      "Ġprefix": 4694,
      "irectory": 4695,
      "ibility": 4696,
      "Ġbehind": 4697,
      "Ġsegfault": 4698,
      "Ġpackets": 4699,
      "Ġencoding": 4700,
      "mo": 4701,
      "};": 4702,
      "Ġgl": 4703,
      "Ġsolved": 4704,
      "Ġinvol": 4705,
      "random": 4706,
      "Ġparsing": 4707,
      "lua": 4708,
      "since": 4709,
      "Ġmov": 4710,
      "Ġ=>": 4711,
      "iling": 4712,
      "param": 4713,
      ".dll": 4714,
      "ĠSDL": 4715,
      "CCESS": 4716,
      "Ġlabel": 4717,
      "Ġcomplement": 4718,
      "ĠShould": 4719,
      "Ġtypeint": 4720,
      "Ġhelps": 4721,
      "names": 4722,
      "ĠAndroid": 4723,
      "-line": 4724,
      "Mat": 4725,
      "TER": 4726,
      "fclose": 4727,
      "raw": 4728,
      "alf": 4729,
      "Ġvs": 4730,
      "pto": 4731,
      "()ĊĊ": 4732,
      "Instead": 4733,
      "Ġupd": 4734,
      "Pos": 4735,
      "server": 4736,
      "Ġiterate": 4737,
      "Ġrelative": 4738,
      "Ġboolean": 4739,
      "47": 4740,
      "Line": 4741,
      "Ġmechan": 4742,
      "switch": 4743,
      "Ġallocating": 4744,
      "Ġperhaps": 4745,
      "status": 4746,
      "Ġdependent": 4747,
      "Ġrecursive": 4748,
      ",sizeof": 4749,
      "IL": 4750,
      "UM": 4751,
      "cpp": 4752,
      "ox": 4753,
      "Ġdir": 4754,
      "izing": 4755,
      "ĠError": 4756,
      "Ġfinding": 4757,
      "ordin": 4758,
      "Ġconfigure": 4759,
      "ĠStack": 4760,
      "Ġlogical": 4761,
      "Ġincremented": 4762,
      "chron": 4763,
      ".y": 4764,
      "Well": 4765,
      "_MA": 4766,
      "iest": 4767,
      "Ġcache": 4768,
      "Ġwide": 4769,
      "Ġdll": 4770,
      "ĠFrom": 4771,
      "project": 4772,
      "Ġconditions": 4773,
      "Ġdiscuss": 4774,
      "+i": 4775,
      "Run": 4776,
      "xis": 4777,
      "Ġ.Ċ": 4778,
      "Ġforget": 4779,
      "empl": 4780,
      "Ġcompl": 4781,
      "Ġwhenever": 4782,
      "ĠGL": 4783,
      "Ġreasons": 4784,
      "ĠXcode": 4785,
      "Ġindivid": 4786,
      "%c": 4787,
      "Don": 4788,
      "Per": 4789,
      "Ġ(*)": 4790,
      "ĠSQL": 4791,
      "ĠNote": 4792,
      "Ġhelpful": 4793,
      "Ġshowing": 4794,
      "Ġsemaphore": 4795,
      "Ġincrease": 4796,
      "Ġretrieve": 4797,
      "-de": 4798,
      "SQL": 4799,
      "VE": 4800,
      "erver": 4801,
      "sto": 4802,
      "item": 4803,
      "Ġprior": 4804,
      "(\"%.": 4805,
      "Ġabc": 4806,
      "Ġparts": 4807,
      "Ġparser": 4808,
      "Ġfocuses": 4809,
      "(-": 4810,
      "Hi": 4811,
      "ND": 4812,
      "Par": 4813,
      "github": 4814,
      "child": 4815,
      "Ġ()": 4816,
      "icode": 4817,
      "ssl": 4818,
      "++;": 4819,
      "ITE": 4820,
      "Ġfeatures": 4821,
      "Ġinvoke": 4822,
      "Ġdereferencing": 4823,
      "New": 4824,
      "Ġpow": 4825,
      "Ġbin": 4826,
      "Ġstrcat": 4827,
      "////": 4828,
      "pecially": 4829,
      "Ġlists": 4830,
      "Ġstoring": 4831,
      "annel": 4832,
      "-g": 4833,
      "38": 4834,
      "built": 4835,
      "ĠSet": 4836,
      "ulti": 4837,
      "Ġmorefoc": 4838,
      "ĠInstead": 4839,
      "Ġleading": 4840,
      "Ġmorefocused": 4841,
      ".The": 4842,
      "Id": 4843,
      "OK": 4844,
      "xff": 4845,
      "ĠZ": 4846,
      "align": 4847,
      "asy": 4848,
      "Ġnotic": 4849,
      "Ġalthough": 4850,
      "stdint": 4851,
      "ĠPHP": 4852,
      "-f": 4853,
      "512": 4854,
      "Key": 4855,
      "VAL": 4856,
      "Ġsquare": 4857,
      "ouse": 4858,
      "Ġanunsigned": 4859,
      "Ġredu": 4860,
      "Ġgoogle": 4861,
      "Ġreadable": 4862,
      "recv": 4863,
      "Ġdestination": 4864,
      "_AR": 4865,
      "have": 4866,
      "ses": 4867,
      "isk": 4868,
      "Ġhence": 4869,
      "Ġgame": 4870,
      "They": 4871,
      "ĠPy": 4872,
      "Ġtells": 4873,
      "ĠStandard": 4874,
      "qlite": 4875,
      "Ġfreed": 4876,
      "acc": 4877,
      "copy": 4878,
      "wd": 4879,
      "ane": 4880,
      "Ġmo": 4881,
      "also": 4882,
      "ctually": 4883,
      "Ġconverting": 4884,
      "olor": 4885,
      "ĠMinGW": 4886,
      "_BIT": 4887,
      "Ġdescribed": 4888,
      ",-": 4889,
      "_un": 4890,
      "aight": 4891,
      "lle": 4892,
      "width": 4893,
      "iff": 4894,
      "abs": 4895,
      "Ġguarantee": 4896,
      "Ġinterpret": 4897,
      "Ġbox": 4898,
      "ĠProgramming": 4899,
      "IME": 4900,
      "page": 4901,
      "rd": 4902,
      "Ġins": 4903,
      "Ġhome": 4904,
      "Ġleak": 4905,
      "ameter": 4906,
      "Ġarbitrary": 4907,
      "69": 4908,
      "GET": 4909,
      "_I": 4910,
      "specif": 4911,
      "Ġrelease": 4912,
      "Ġconsum": 4913,
      "Ġfilter": 4914,
      "Ġmistake": 4915,
      "OD": 4916,
      "SR": 4917,
      "_n": 4918,
      "oa": 4919,
      "sub": 4920,
      "lem": 4921,
      "ĠIm": 4922,
      "Ġstudio": 4923,
      "Ġ()Ċ": 4924,
      ":ĊĊĊĊ": 4925,
      "ili": 4926,
      "Ġ%.": 4927,
      "ipes": 4928,
      "SION": 4929,
      "Start": 4930,
      "flags": 4931,
      "(temp": 4932,
      "-like": 4933,
      "Say": 4934,
      "Ġess": 4935,
      "Ġexe": 4936,
      "Ġmac": 4937,
      "Ġshare": 4938,
      "api": 4939,
      "Ġsmaller": 4940,
      "Ġchoice": 4941,
      "-D": 4942,
      "HAR": 4943,
      "_de": 4944,
      "atic": 4945,
      "Ġvideo": 4946,
      "izeof": 4947,
      "Ġdescription": 4948,
      "compiler": 4949,
      ",d": 4950,
      "_FILE": 4951,
      "acro": 4952,
      "find": 4953,
      "Ġtaken": 4954,
      "Ġmp": 4955,
      "Ġforward": 4956,
      "ĠUNI": 4957,
      "Ġparam": 4958,
      "Ġstores": 4959,
      "Ġterminating": 4960,
      "Ġletters": 4961,
      "Ġevaluation": 4962,
      "Ġkeeps": 4963,
      "Ġoptimization": 4964,
      "Ġexplicit": 4965,
      "iddle": 4966,
      "Gener": 4967,
      "Gtk": 4968,
      "VER": 4969,
      "]);ĊĊ": 4970,
      "sd": 4971,
      "Ġsizes": 4972,
      "ĠtheC": 4973,
      "Ġdi": 4974,
      "Ġecho": 4975,
      "change": 4976,
      "Ġassert": 4977,
      "ĠUsing": 4978,
      "Ġdesired": 4979,
      "plication": 4980,
      "overflow": 4981,
      "ĠHTTP": 4982,
      "87": 4983,
      "Basically": 4984,
      "SB": 4985,
      "_new": 4986,
      "message": 4987,
      "nchron": 4988,
      "Ġperson": 4989,
      "Ġoct": 4990,
      "Ġnotation": 4991,
      "Ġstraight": 4992,
      "ĠMicrosoft": 4993,
      "filename": 4994,
      "Ġprocessing": 4995,
      "Ġclasses": 4996,
      "ĠWhile": 4997,
      "_RD": 4998,
      "Ġdoubt": 4999,
      "(I": 5000,
      "56": 5001,
      "NO": 5002,
      "Ġmet": 5003,
      "ĠAdd": 5004,
      "contain": 5005,
      "Ġaddr": 5006,
      "Ġcalloc": 5007,
      "isters": 5008,
      "ĠGDB": 5009,
      "Ġthrow": 5010,
      "ONLY": 5011,
      "Ġdevelopment": 5012,
      "Ġredirect": 5013,
      "(data": 5014,
      "Reg": 5015,
      "Ġreser": 5016,
      "....Ċ": 5017,
      "Ġmodern": 5018,
      "Ġconfiguration": 5019,
      "Ġconvention": 5020,
      "Ġwhitespace": 5021,
      "Ġdistrib": 5022,
      "Ġnoticed": 5023,
      "-point": 5024,
      "_char": 5025,
      "_open": 5026,
      "Ġnc": 5027,
      "Ġlegal": 5028,
      "Ġuni": 5029,
      "Ġunknown": 5030,
      "Ġrecord": 5031,
      "_SO": 5032,
      "Ġitems": 5033,
      "Ġdelimit": 5034,
      "MBER": 5035,
      "(or": 5036,
      "(num": 5037,
      "-e": 5038,
      "<stdlib": 5039,
      "[k": 5040,
      "kernel": 5041,
      "lu": 5042,
      "oh": 5043,
      "uit": 5044,
      "ummy": 5045,
      "Ġrows": 5046,
      "loaded": 5047,
      "Ġobj": 5048,
      "veloper": 5049,
      "Byte": 5050,
      "Ġphys": 5051,
      "wikipedia": 5052,
      "Ġremoved": 5053,
      "/proc": 5054,
      "]==": 5055,
      "ries": 5056,
      "Ġtold": 5057,
      "Ġgave": 5058,
      "icks": 5059,
      "oog": 5060,
      "token": 5061,
      "Ġstops": 5062,
      "Ġpromot": 5063,
      "Ġassociated": 5064,
      "Py": 5065,
      "Rec": 5066,
      "ged": 5067,
      "kg": 5068,
      "snprintf": 5069,
      "Ġed": 5070,
      "attr": 5071,
      "integer": 5072,
      "ulation": 5073,
      "ides": 5074,
      "Ġsetup": 5075,
      "Ġplain": 5076,
      "ools": 5077,
      "_func": 5078,
      "Ġcapt": 5079,
      "/library": 5080,
      "Ġsteps": 5081,
      "Ġinternet": 5082,
      "Length": 5083,
      "/w": 5084,
      "39": 5085,
      "=-": 5086,
      "[index": 5087,
      "oring": 5088,
      "Ġear": 5089,
      "These": 5090,
      "Ġalias": 5091,
      "Ġmeas": 5092,
      "ĠâĢľ": 5093,
      "ULT": 5094,
      "Ġcurious": 5095,
      "Ġregarding": 5096,
      "Ġencountered": 5097,
      "<n": 5098,
      "Am": 5099,
      "Ġerrno": 5100,
      "Ġtimer": 5101,
      "Ġodd": 5102,
      "ĠCl": 5103,
      "Ġnest": 5104,
      "Ġcompute": 5105,
      "Ġanywhere": 5106,
      "ĠĠĠĠĠĠĠĠĠĠĠĠĠĠ": 5107,
      "ĠPID": 5108,
      "Ġfriend": 5109,
      "(stderr": 5110,
      ",*": 5111,
      "-of": 5112,
      "System": 5113,
      "Ġincompatible": 5114,
      "ooks": 5115,
      "ntl": 5116,
      "Ġwrap": 5117,
      "olon": 5118,
      "aved": 5119,
      "Ġcomplain": 5120,
      "+b": 5121,
      "DC": 5122,
      "calloc": 5123,
      "Ġscr": 5124,
      "Ġsources": 5125,
      "Ġforce": 5126,
      "Ġtrunc": 5127,
      "ĠOtherwise": 5128,
      "ledge": 5129,
      "Ġlocated": 5130,
      "Ġrecently": 5131,
      "CTION": 5132,
      "Ġproduces": 5133,
      ")and": 5134,
      "={": 5135,
      "EG": 5136,
      "USE": 5137,
      "Ġclosed": 5138,
      "ĠAp": 5139,
      "platform": 5140,
      "itely": 5141,
      "ĠPo": 5142,
      "Ġpassword": 5143,
      "Ġtokens": 5144,
      "\"),": 5145,
      "/sh": 5146,
      "300": 5147,
      "inst": 5148,
      "Ġmenu": 5149,
      "Ġstrcmp": 5150,
      "ĠNOT": 5151,
      "Ġgenerates": 5152,
      "ĠOpenGL": 5153,
      "='": 5154,
      "PUT": 5155,
      "asks": 5156,
      "Ġexpand": 5157,
      "Ġsubst": 5158,
      "Ġeasiest": 5159,
      "Ġlets": 5160,
      ".microsoft": 5161,
      "Ġcomplexity": 5162,
      "arently": 5163,
      "_SET": 5164,
      "/local": 5165,
      "Handle": 5166,
      "MD": 5167,
      "block": 5168,
      "sock": 5169,
      "uby": 5170,
      "Ġyield": 5171,
      "clock": 5172,
      "Ġunix": 5173,
      "_test": 5174,
      "ĠMPI": 5175,
      "ERROR": 5176,
      "Ġdefining": 5177,
      "Ġfailure": 5178,
      "imensional": 5179,
      "59": 5180,
      "_l": 5181,
      "ken": 5182,
      "tm": 5183,
      "Ġ);ĊĊ": 5184,
      "Ġ...ĊĊ": 5185,
      "Ġaudio": 5186,
      "Ġresource": 5187,
      "ĠBe": 5188,
      "ĠLua": 5189,
      "Ġ};ĊĊ": 5190,
      "Ġoperands": 5191,
      "Ġconnected": 5192,
      "Second": 5193,
      "CG": 5194,
      "En": 5195,
      "Have": 5196,
      "Ġcursor": 5197,
      "clus": 5198,
      "Ġtrig": 5199,
      "structure": 5200,
      "Ġdescriptors": 5201,
      "declared": 5202,
      "(r": 5203,
      "-re": 5204,
      "-us": 5205,
      "57": 5206,
      "Com": 5207,
      "Like": 5208,
      "_len": 5209,
      "ycle": 5210,
      "Ġbash": 5211,
      "ott": 5212,
      "Ġvert": 5213,
      "());Ċ": 5214,
      "Ġshif": 5215,
      "fflush": 5216,
      "possible": 5217,
      "Ġexecutes": 5218,
      "duplicate": 5219,
      "Ġloaded": 5220,
      "Ġbeginner": 5221,
      "Ġlatter": 5222,
      "(uint": 5223,
      "ACK": 5224,
      "_var": 5225,
      "select": 5226,
      "etch": 5227,
      "Ġprog": 5228,
      "ilities": 5229,
      "ĠSystem": 5230,
      "inder": 5231,
      "swer": 5232,
      "Ġregisters": 5233,
      "Ġobviously": 5234,
      "ommand": 5235,
      ".j": 5236,
      "_g": 5237,
      "ings": 5238,
      "Ġ\".": 5239,
      "Ġchecks": 5240,
      "Ġclick": 5241,
      "Ġterminates": 5242,
      "Ġkeyboard": 5243,
      "Ġlimited": 5244,
      "Ġinterpreted": 5245,
      "Ġsockaddr": 5246,
      "800": 5247,
      "Rem": 5248,
      "inc": 5249,
      "Ġcatch": 5250,
      "Ġmill": 5251,
      "ents": 5252,
      "Ġqual": 5253,
      "Ġresources": 5254,
      "egin": 5255,
      "aves": 5256,
      "Write": 5257,
      "%.": 5258,
      "Message": 5259,
      "_arr": 5260,
      "iis": 5261,
      "Ġcp": 5262,
      "Ġdirection": 5263,
      "Ġ(-": 5264,
      "Ġminimum": 5265,
      "Another": 5266,
      "Ġquotes": 5267,
      "strncpy": 5268,
      "06": 5269,
      "=a": 5270,
      "More": 5271,
      "Main": 5272,
      "Ġwhose": 5273,
      "ALSE": 5274,
      "Ġscen": 5275,
      "gnu": 5276,
      "Ġoccur": 5277,
      "Ġrecursion": 5278,
      "written": 5279,
      "-only": 5280,
      "Ġ***": 5281,
      "Ġadouble": 5282,
      "Ġseeing": 5283,
      "Ġbackground": 5284,
      "Ġfront": 5285,
      "ĠWhich": 5286,
      "ternatively": 5287,
      "iliar": 5288,
      "_value": 5289,
      "lm": 5290,
      "Ġnor": 5291,
      "ĠISO": 5292,
      "Ġhttp": 5293,
      "Ġupper": 5294,
      "Ġreset": 5295,
      "ession": 5296,
      "ours": 5297,
      "ĠUDP": 5298,
      "Ġattach": 5299,
      "Ġholds": 5300,
      "Ġcomparing": 5301,
      "PC": 5302,
      "_EN": 5303,
      "help": 5304,
      "volatile": 5305,
      "erial": 5306,
      "ond": 5307,
      "omain": 5308,
      "Ġrect": 5309,
      "Ġeclipse": 5310,
      "Ġgrep": 5311,
      "Ġvolatile": 5312,
      "Ġseed": 5313,
      "forloop": 5314,
      "oller": 5315,
      "coded": 5316,
      "âĢĻt": 5317,
      "-specific": 5318,
      "Ġboard": 5319,
      "Ġskip": 5320,
      "Ġintrodu": 5321,
      ".wikipedia": 5322,
      "CS": 5323,
      "Ġerr": 5324,
      "inion": 5325,
      "Ġduration": 5326,
      "Ġunused": 5327,
      "ĠĠĠĠĠĠĠĠĠĠĠĠĠĠĠĠĠĠĠ": 5328,
      "odule": 5329,
      "Ġpreprocess": 5330,
      "Ġ*)&": 5331,
      "Ġcausing": 5332,
      "ĠWhere": 5333,
      "Ġdevices": 5334,
      "(ch": 5335,
      "YS": 5336,
      "cal": 5337,
      "inet": 5338,
      "Ġcorr": 5339,
      "standard": 5340,
      "Ġcoming": 5341,
      "ĠBecause": 5342,
      "ailing": 5343,
      "Ġupon": 5344,
      "ikipedia": 5345,
      "Ġdeveloping": 5346,
      "012": 5347,
      "fre": 5348,
      "Ġprof": 5349,
      "\",*": 5350,
      "(){ĊĊ": 5351,
      "ialog": 5352,
      "assert": 5353,
      "Ġdirectories": 5354,
      "Ġspecification": 5355,
      "NUM": 5356,
      "Ġoccurre": 5357,
      "Ġwaiting": 5358,
      "#else": 5359,
      "){ĊĊ": 5360,
      "Both": 5361,
      "Maybe": 5362,
      "ailed": 5363,
      "eax": 5364,
      "oad": 5365,
      "Ġmix": 5366,
      "Ġinner": 5367,
      "ential": 5368,
      "implement": 5369,
      "Ġsus": 5370,
      "ĠFunction": 5371,
      "Ġzeros": 5372,
      "Ġmodel": 5373,
      "Ġresolve": 5374,
      "Ġtalking": 5375,
      "Ġsubstit": 5376,
      "FO": 5377,
      "MY": 5378,
      "},Ċ": 5379,
      "ĠiOS": 5380,
      "Ġnone": 5381,
      "Ġpoll": 5382,
      "Index": 5383,
      "ĠRead": 5384,
      "Ġindeed": 5385,
      "Ġmechanism": 5386,
      "Ġmeasure": 5387,
      "\":": 5388,
      "&R": 5389,
      "fseek": 5390,
      "Ġcou": 5391,
      "ĠinC": 5392,
      "Ġld": 5393,
      "union": 5394,
      "ĠCreate": 5395,
      "Ġusual": 5396,
      "Ġknowledge": 5397,
      "Ġexport": 5398,
      "Ġtyped": 5399,
      "Ġfair": 5400,
      "Ġtranslation": 5401,
      "âĶĢ": 5402,
      "-W": 5403,
      "68": 5404,
      "lish": 5405,
      "su": 5406,
      "script": 5407,
      "yy": 5408,
      "Ġte": 5409,
      "ĊĊĊĊ": 5410,
      "peg": 5411,
      "Ġtempor": 5412,
      "Ġappreciate": 5413,
      "ĠARM": 5414,
      "Ġtypo": 5415,
      "ĠUNIX": 5416,
      "(%": 5417,
      "DA": 5418,
      "Variable": 5419,
      "dn": 5420,
      "ĠLL": 5421,
      "Ġcit": 5422,
      "Ġwarn": 5423,
      "Ġmiddle": 5424,
      "Ġintended": 5425,
      "verage": 5426,
      "Ġadvice": 5427,
      "Ġpaths": 5428,
      "Ġimplicitly": 5429,
      "[^\\": 5430,
      "Ġtreated": 5431,
      "aspx": 5432,
      "'.ĊĊ": 5433,
      "OST": 5434,
      "].ĊĊ": 5435,
      "send": 5436,
      "vs": 5437,
      "realloc": 5438,
      "Ġisnot": 5439,
      "++);Ċ": 5440,
      "trol": 5441,
      "egmentation": 5442,
      "encies": 5443,
      "Ġreferenc": 5444,
      "Ġsubtract": 5445,
      "........": 5446,
      "declar": 5447,
      "Ġindicate": 5448,
      "Ġcolumns": 5449,
      "Ġreceiving": 5450,
      "ĠAPIs": 5451,
      "Ġcurl": 5452,
      "Ġopp": 5453,
      "Ġluck": 5454,
      "antic": 5455,
      "Ġsuit": 5456,
      "Ġjump": 5457,
      "Console": 5458,
      "_SOURCE": 5459,
      "-level": 5460,
      "98": 5461,
      "Gr": 5462,
      "URE": 5463,
      "_end": 5464,
      "_arg": 5465,
      "build": 5466,
      "Ġcirc": 5467,
      "Ġpublic": 5468,
      "anch": 5469,
      "Ġlua": 5470,
      "Ġimplementing": 5471,
      "ĠThese": 5472,
      "Ġgeneric": 5473,
      "duino": 5474,
      "Ġnodes": 5475,
      "âĢĻĊ": 5476,
      "locking": 5477,
      "Ġbrack": 5478,
      "Ġenumer": 5479,
      "EEK": 5480,
      "Ġmultiply": 5481,
      "Ġcapture": 5482,
      "/on": 5483,
      "CFLAGS": 5484,
      "Log": 5485,
      "SON": 5486,
      "digit": 5487,
      "atoi": 5488,
      "assign": 5489,
      "Ġexits": 5490,
      "Ġascii": 5491,
      "Ġkill": 5492,
      "ario": 5493,
      "tra": 5494,
      "come": 5495,
      "ĠGtk": 5496,
      "ĠTr": 5497,
      "Ġspecifiers": 5498,
      "Ġapplicable": 5499,
      "ONG": 5500,
      "Ġhandles": 5501,
      "keyword": 5502,
      "layer": 5503,
      "Ġcommunication": 5504,
      "Event": 5505,
      "event": 5506,
      "Ġsite": 5507,
      "Ġtoint": 5508,
      "Ġwhite": 5509,
      "ĠCG": 5510,
      "urity": 5511,
      "ident": 5512,
      "Ġmaint": 5513,
      "Ġalph": 5514,
      "irm": 5515,
      "lier": 5516,
      "ĠGoogle": 5517,
      "_WR": 5518,
      "Ġattempting": 5519,
      "ĠAND": 5520,
      "/gcc": 5521,
      "345": 5522,
      "IX": 5523,
      "Var": 5524,
      "Ġbre": 5525,
      "Ġbunch": 5526,
      "Ġomit": 5527,
      "isn": 5528,
      "Ġglibc": 5529,
      "Ġexerc": 5530,
      "Ġleave": 5531,
      "ĠNum": 5532,
      "world": 5533,
      "poses": 5534,
      "Ġautomatic": 5535,
      "declare": 5536,
      "-linux": 5537,
      "ĠExample": 5538,
      "Ġframework": 5539,
      "Ġprogrammer": 5540,
      ",(": 5541,
      "Ġden": 5542,
      "Ġdays": 5543,
      "ĠPR": 5544,
      "Ġdifferences": 5545,
      "calls": 5546,
      "Ġ^Ċ": 5547,
      "plusplus": 5548,
      "Ġexperience": 5549,
      "-terminated": 5550,
      "Ġphysical": 5551,
      "NAME": 5552,
      "UB": 5553,
      "cm": 5554,
      "Ġlaunch": 5555,
      "Ġunlike": 5556,
      "ĠGUI": 5557,
      "Ġtested": 5558,
      "Ġstandards": 5559,
      "Ġfloats": 5560,
      "_VER": 5561,
      "Ġessentially": 5562,
      "\"};Ċ": 5563,
      "/linux": 5564,
      "=&": 5565,
      "Head": 5566,
      "Take": 5567,
      "down": 5568,
      "txt": 5569,
      "uge": 5570,
      "Ġfread": 5571,
      "seudo": 5572,
      "vec": 5573,
      "Ġimp": 5574,
      "tings": 5575,
      "EXIT": 5576,
      "matrix": 5577,
      "Ġresolved": 5578,
      "Alloc": 5579,
      "ĠMSVC": 5580,
      ".st": 5581,
      "UFF": 5582,
      "bj": 5583,
      "pow": 5584,
      "ring": 5585,
      "si": 5586,
      "was": 5587,
      "Ġage": 5588,
      "Ġsig": 5589,
      "readed": 5590,
      "atype": 5591,
      "Ġpot": 5592,
      "Ġduplicate": 5593,
      "Ġrid": 5594,
      "../": 5595,
      "ĠSTR": 5596,
      "ĠAm": 5597,
      "execut": 5598,
      "olation": 5599,
      "Ġimages": 5600,
      "ĠTherefore": 5601,
      "-based": 5602,
      "Ġpair": 5603,
      "(_": 5604,
      "He": 5605,
      "Memory": 5606,
      "PR": 5607,
      "[N": 5608,
      "_sec": 5609,
      "go": 5610,
      "xy": 5611,
      "Ġaction": 5612,
      "Ġsounds": 5613,
      "ĊĊĊ": 5614,
      "Ġregex": 5615,
      "Ġvisible": 5616,
      "ants": 5617,
      "atest": 5618,
      "Ġcomplic": 5619,
      "group": 5620,
      "ĠAd": 5621,
      "Ġsuper": 5622,
      "ĠList": 5623,
      "ĠLibrary": 5624,
      "Ġgoal": 5625,
      "Print": 5626,
      "Ġgreatly": 5627,
      "Ġproperty": 5628,
      "DK": 5629,
      "Le": 5630,
      "may": 5631,
      "table": 5632,
      "Ġlif": 5633,
      "prot": 5634,
      "Ġknowing": 5635,
      "Ġlibc": 5636,
      "ĠPer": 5637,
      "udent": 5638,
      "Ġputting": 5639,
      "ĠÂ§": 5640,
      "-n": 5641,
      "View": 5642,
      "hand": 5643,
      "Ġ);": 5644,
      "aster": 5645,
      "Ġspecifies": 5646,
      "Ġdirective": 5647,
      "Ġ##": 5648,
      "prints": 5649,
      "Debug": 5650,
      "mean": 5651,
      "Ref": 5652,
      "idden": 5653,
      "Ġintegral": 5654,
      "Ġcouple": 5655,
      "(T": 5656,
      "(X": 5657,
      "af": 5658,
      "jmp": 5659,
      "pass": 5660,
      "rame": 5661,
      "Ġ.ĊĊ": 5662,
      "ifiers": 5663,
      "ula": 5664,
      "ĠAB": 5665,
      "Ġatomic": 5666,
      "Ġmemset": 5667,
      "Ġtypechar": 5668,
      "ios": 5669,
      "Ġmodul": 5670,
      "EXT": 5671,
      "Ġnecessarily": 5672,
      "Ġevents": 5673,
      "ANDLE": 5674,
      "Ġpermissions": 5675,
      "(st": 5676,
      "(time": 5677,
      ",f": 5678,
      "-zero": 5679,
      "DT": 5680,
      "Other": 5681,
      "]\",": 5682,
      "cmd": 5683,
      "ref": 5684,
      "atal": 5685,
      "Ġbene": 5686,
      "Ġmicro": 5687,
      "Ġofchar": 5688,
      "image": 5689,
      "++]": 5690,
      "strings": 5691,
      "Ġfilesystem": 5692,
      "Ġhappened": 5693,
      "Ġinitializing": 5694,
      "offset": 5695,
      "Ġindividual": 5696,
      "mar": 5697,
      "around": 5698,
      "under": 5699,
      "Ġasm": 5700,
      "oost": 5701,
      "Ġconfusing": 5702,
      "]=\"": 5703,
      "Result": 5704,
      ":-": 5705,
      "Source": 5706,
      "User": 5707,
      "xFFFF": 5708,
      "stamp": 5709,
      "agine": 5710,
      "Ġstatically": 5711,
      "Ġ|Ċ": 5712,
      "Ġdetail": 5713,
      "_PATH": 5714,
      "Ġsuccessful": 5715,
      "ABLE": 5716,
      "========": 5717,
      "ĠSIZE": 5718,
      "/l": 5719,
      "=fopen": 5720,
      "PP": 5721,
      "Pre": 5722,
      "UCCESS": 5723,
      "\\Ċ": 5724,
      "_E": 5725,
      "_thread": 5726,
      "must": 5727,
      "tion": 5728,
      "Ġtempl": 5729,
      "Ġpi": 5730,
      "ĠINT": 5731,
      "adic": 5732,
      "ĠAss": 5733,
      "_tis": 5734,
      "ĠOR": 5735,
      "Ġplaced": 5736,
      "âĢĻ,": 5737,
      "Ġmultiplication": 5738,
      "Ġremote": 5739,
      "(path": 5740,
      "SDN": 5741,
      "Ġbuffers": 5742,
      "llegal": 5743,
      ".lib": 5744,
      "/or": 5745,
      "51": 5746,
      "IM": 5747,
      "WR": 5748,
      "Win": 5749,
      "Ġlight": 5750,
      "Ġund": 5751,
      "default": 5752,
      "post": 5753,
      "[][": 5754,
      "ĠTest": 5755,
      "Ġinterf": 5756,
      "ABC": 5757,
      "apter": 5758,
      "Ġbenef": 5759,
      "(y": 5760,
      "Dis": 5761,
      "Many": 5762,
      "Table": 5763,
      "_num": 5764,
      "chain": 5765,
      "ĠLike": 5766,
      "shared": 5767,
      "Ġadvant": 5768,
      "Class": 5769,
      "41": 5770,
      "question": 5771,
      "uc": 5772,
      "Ġaconst": 5773,
      "lete": 5774,
      "anded": 5775,
      "lip": 5776,
      "Ġadds": 5777,
      "ĠData": 5778,
      "acy": 5779,
      "parameter": 5780,
      "(stdin": 5781,
      "Ġeditor": 5782,
      "Ġcitations": 5783,
      "/dev": 5784,
      "DATE": 5785,
      "TW": 5786,
      "[a": 5787,
      "`Ċ": 5788,
      "could": 5789,
      "tab": 5790,
      "va": 5791,
      "inside": 5792,
      "eds": 5793,
      "Ġstates": 5794,
      "Ġentries": 5795,
      ".gnu": 5796,
      "Ġaccepts": 5797,
      "ormal": 5798,
      "msdn": 5799,
      "Ġnested": 5800,
      "/my": 5801,
      "Python": 5802,
      "break": 5803,
      "tw": 5804,
      "wchar": 5805,
      "Ġbott": 5806,
      "Ġro": 5807,
      ";ĊĊĊ": 5808,
      "connect": 5809,
      "ĠWill": 5810,
      "__((": 5811,
      "Ġnumeric": 5812,
      "600": 5813,
      "AS": 5814,
      "MPI": 5815,
      "POSIX": 5816,
      "dump": 5817,
      "Ġwatch": 5818,
      "Ġbounds": 5819,
      "ocon": 5820,
      "++.ĊĊ": 5821,
      "Ġattribute": 5822,
      "Ġ:-": 5823,
      "Ġaccessed": 5824,
      "Ġservice": 5825,
      "Ġmachines": 5826,
      "Ġsignals": 5827,
      "Ġproperties": 5828,
      "Ġfinished": 5829,
      "Ġfairly": 5830,
      "655": 5831,
      "Every": 5832,
      "\\r": 5833,
      "Ġcv": 5834,
      "icolon": 5835,
      "Ġstrict": 5836,
      "Ġimpossible": 5837,
      "ĠLe": 5838,
      "ĠTR": 5839,
      "resh": 5840,
      "ĠJNI": 5841,
      "Ġtransfer": 5842,
      "Ġidentical": 5843,
      "Ġextensions": 5844,
      "tributes": 5845,
      "----------------": 5846,
      "********": 5847,
      "Ġsched": 5848,
      "Ġmaintain": 5849,
      ",p": 5850,
      "?)": 5851,
      "fread": 5852,
      "oct": 5853,
      "iter": 5854,
      "Ġhalf": 5855,
      "Ġself": 5856,
      "ĠSEEK": 5857,
      "Init": 5858,
      "getch": 5859,
      "Ġsimplest": 5860,
      "Ġrema": 5861,
      "Ġmodifying": 5862,
      "Ġminimal": 5863,
      "Ġnamespace": 5864,
      "height": 5865,
      "ĠIntel": 5866,
      "safe": 5867,
      "':Ċ": 5868,
      "(N": 5869,
      "214": 5870,
      "88": 5871,
      "Each": 5872,
      "LF": 5873,
      "hone": 5874,
      "ked": 5875,
      "mode": 5876,
      "Ġcycle": 5877,
      "Ġdot": 5878,
      "Ġandroid": 5879,
      "Ġtrailing": 5880,
      "try": 5881,
      "Ġundeclared": 5882,
      "Ġblank": 5883,
      "Ġbigger": 5884,
      "Ġconcern": 5885,
      "-byte": 5886,
      "lined": 5887,
      "Ġcover": 5888,
      "util": 5889,
      "etime": 5890,
      "adi": 5891,
      "ember": 5892,
      "ĠApp": 5893,
      "Ġunary": 5894,
      "Ġlisten": 5895,
      ".tv": 5896,
      "_CON": 5897,
      "Ġlots": 5898,
      "Ġclearly": 5899,
      "Ġmodules": 5900,
      "Ġdelay": 5901,
      "Ġunique": 5902,
      "(the": 5903,
      "-a": 5904,
      "FC": 5905,
      "UCT": 5906,
      "Ġcell": 5907,
      "leg": 5908,
      "Ġdang": 5909,
      "Ġ(&": 5910,
      "Ġaltern": 5911,
      "ĠSomething": 5912,
      "ofile": 5913,
      "Ġ'/": 5914,
      "Ġallocates": 5915,
      "Ġtests": 5916,
      "Ġoverl": 5917,
      "Ġrequirement": 5918,
      "Ġmostly": 5919,
      "Ġcomplicated": 5920,
      "%f": 5921,
      ".\"": 5922,
      "TO": 5923,
      "]and": 5924,
      "_j": 5925,
      "book": 5926,
      "non": 5927,
      "edure": 5928,
      "Ġubuntu": 5929,
      "Ġofint": 5930,
      "Ġgoog": 5931,
      "cel": 5932,
      "Ġchannel": 5933,
      "ateg": 5934,
      "ĠNet": 5935,
      "--;Ċ": 5936,
      "Ġ{'": 5937,
      "lements": 5938,
      "ĠRun": 5939,
      "**)": 5940,
      "writing": 5941,
      "builtin": 5942,
      "Ġoctal": 5943,
      "Ġremainder": 5944,
      "\"is": 5945,
      "(which": 5946,
      ".%": 5947,
      "Hope": 5948,
      "_v": 5949,
      "Ġ(((": 5950,
      "++.Ċ": 5951,
      "plays": 5952,
      "tended": 5953,
      "Ġrepresents": 5954,
      "Ġaccount": 5955,
      "Ġprecise": 5956,
      "upport": 5957,
      "Ġfamiliar": 5958,
      "operties": 5959,
      ".If": 5960,
      "09": 5961,
      "BSD": 5962,
      "_u": 5963,
      "_exit": 5964,
      "ek": 5965,
      "xffff": 5966,
      "Ġâ": 5967,
      "Ġtheprintf": 5968,
      "allocated": 5969,
      "ators": 5970,
      "_CRE": 5971,
      "viously": 5972,
      "ĠOpenSSL": 5973,
      "Ġindicates": 5974,
      "Ġcoordin": 5975,
      "(__": 5976,
      "=i": 5977,
      "PATH": 5978,
      "sim": 5979,
      "Ġsqlite": 5980,
      "Ġsaved": 5981,
      "Ġcout": 5982,
      "Ġcard": 5983,
      "Ġwin": 5984,
      "always": 5985,
      "section": 5986,
      "Ġprivate": 5987,
      "Ġdecrement": 5988,
      "Ġneither": 5989,
      "lict": 5990,
      "ightly": 5991,
      "ĠRAM": 5992,
      "Ġignored": 5993,
      "Ġsurpr": 5994,
      "-'": 5995,
      "/.": 5996,
      "TE": 5997,
      "]:": 5998,
      "bie": 5999,
      "pub": 6000,
      "inally": 6001,
      "Ġprov": 6002,
      "img": 6003,
      "[]=\"": 6004,
      "(foo": 6005,
      "Ġregion": 6006,
      "Cont": 6007,
      "Ġreceives": 6008,
      "Ġcertainly": 6009,
      "fcntl": 6010,
      "Ġauthor": 6011,
      "\"))": 6012,
      "(l": 6013,
      ",x": 6014,
      "/f": 6015,
      "78": 6016,
      "Even": 6017,
      "WM": 6018,
      "_L": 6019,
      "direct": 6020,
      "zz": 6021,
      "Ġillegal": 6022,
      "Ġdestroy": 6023,
      "Ġ&=": 6024,
      "Ġrecv": 6025,
      "Ġcalculation": 6026,
      "Ġdisplayed": 6027,
      "Ġseparately": 6028,
      "Ġespecially": 6029,
      "register": 6030,
      "Ġdiscussion": 6031,
      "-t": 6032,
      "789": 6033,
      "Would": 6034,
      "cing": 6035,
      "duct": 6036,
      "Ġms": 6037,
      "Ġforgot": 6038,
      "Ġextended": 6039,
      "Ġsoon": 6040,
      "conds": 6041,
      "Ġsends": 6042,
      "Ġheard": 6043,
      "_fd": 6044,
      "apping": 6045,
      "Bytes": 6046,
      "_easy": 6047,
      "~~~~": 6048,
      "KEY": 6049,
      "ĠCompiler": 6050,
      "'};Ċ": 6051,
      "(B": 6052,
      "*x": 6053,
      "-r": 6054,
      "/a": 6055,
      "43": 6056,
      "GTH": 6057,
      "ln": 6058,
      "socket": 6059,
      "strstr": 6060,
      "ĠLink": 6061,
      "libs": 6062,
      "note": 6063,
      "Ġkeys": 6064,
      "234": 6065,
      "Ġsemicolon": 6066,
      "(filename": 6067,
      "Ġaligned": 6068,
      "Ġsentence": 6069,
      "Ġcopies": 6070,
      "aaaaaaaa": 6071,
      "-topic": 6072,
      "Ġcombine": 6073,
      "Build": 6074,
      "OOL": 6075,
      "aand": 6076,
      "method": 6077,
      "ts": 6078,
      "Ġhuge": 6079,
      "Ġlost": 6080,
      "amer": 6081,
      "icial": 6082,
      "Ġcaller": 6083,
      "ĠPRO": 6084,
      "othing": 6085,
      "IND": 6086,
      "Ġformatting": 6087,
      "DEF": 6088,
      "recated": 6089,
      "ADDR": 6090,
      "xxx": 6091,
      "Ġexercise": 6092,
      "-%": 6093,
      "-config": 6094,
      "Box": 6095,
      "HT": 6096,
      "Look": 6097,
      "Most": 6098,
      "_se": 6099,
      "_length": 6100,
      "equal": 6101,
      "iod": 6102,
      "match": 6103,
      "pkg": 6104,
      "utable": 6105,
      "Ġ*Ċ": 6106,
      "Ġdesigned": 6107,
      "Ġarm": 6108,
      "olution": 6109,
      "Ġdependencies": 6110,
      "Ġdownloaded": 6111,
      "Ġwebs": 6112,
      "Ġmanaged": 6113,
      "Ġtemporary": 6114,
      "FD": 6115,
      "IB": 6116,
      "PL": 6117,
      "Return": 6118,
      "cce": 6119,
      "kill": 6120,
      "pg": 6121,
      "poll": 6122,
      "Ġfore": 6123,
      "Ġmouse": 6124,
      "Ġangle": 6125,
      "}ĊĊĊ": 6126,
      "mysql": 6127,
      "Ġsuggestion": 6128,
      "Ġperformed": 6129,
      "Ġblocking": 6130,
      "Ġreproduce": 6131,
      "(new": 6132,
      "ASE": 6133,
      "Actually": 6134,
      "blocks": 6135,
      "Ġcar": 6136,
      "ater": 6137,
      "Ġexam": 6138,
      "Ġmag": 6139,
      "Ġcompound": 6140,
      "Ġworth": 6141,
      "Ġopinion": 6142,
      "ernary": 6143,
      "uda": 6144,
      "_SUCCESS": 6145,
      "Ġsimpler": 6146,
      "âĶĢâĶĢ": 6147,
      "'.Ċ": 6148,
      ".C": 6149,
      ".name": 6150,
      "/sys": 6151,
      "null": 6152,
      "Ġthed": 6153,
      "itor": 6154,
      "Ġstands": 6155,
      "ĠSim": 6156,
      "__,": 6157,
      "Ġexpans": 6158,
      "*)&": 6159,
      "Ġseparated": 6160,
      "ĠOpenCV": 6161,
      "Ġreplacement": 6162,
      "configure": 6163,
      "_MIN": 6164,
      "---+": 6165,
      "ounded": 6166,
      "Ġreserved": 6167,
      "+-": 6168,
      "/write": 6169,
      "NOT": 6170,
      "bec": 6171,
      "fwrite": 6172,
      "hex": 6173,
      "Ġsens": 6174,
      "rev": 6175,
      "Ġboot": 6176,
      "edantic": 6177,
      "Ġdocs": 6178,
      "aste": 6179,
      "assuming": 6180,
      "Ġdefinitely": 6181,
      "prefix": 6182,
      "Ġalgorithms": 6183,
      "Ġoptimize": 6184,
      "Ġpurposes": 6185,
      "Ġpossibility": 6186,
      "ĠCheck": 6187,
      "Ġtranslate": 6188,
      "(P": 6189,
      "(S": 6190,
      ")to": 6191,
      ".data": 6192,
      "AIL": 6193,
      "Ġtill": 6194,
      "Ġsnprintf": 6195,
      "html": 6196,
      "elow": 6197,
      "Ġlex": 6198,
      "Ġwhereas": 6199,
      "lication": 6200,
      "Ġtexture": 6201,
      "ĠXML": 6202,
      "READ": 6203,
      "results": 6204,
      "-th": 6205,
      "].Ċ": 6206,
      "even": 6207,
      "ube": 6208,
      "Ġtcp": 6209,
      "Ġdu": 6210,
      "ifi": 6211,
      "Ġ-ĊĊ": 6212,
      "trace": 6213,
      "ĠMaybe": 6214,
      "Ġtimeout": 6215,
      "itialize": 6216,
      "Ġapi": 6217,
      "common": 6218,
      "ALUE": 6219,
      "abcdef": 6220,
      ":\");Ċ": 6221,
      "CON": 6222,
      "eff": 6223,
      "yond": 6224,
      "zu": 6225,
      "Ġhist": 6226,
      "ifies": 6227,
      "Ġmysql": 6228,
      "ressed": 6229,
      "ĠFF": 6230,
      "ĠLanguage": 6231,
      "ERT": 6232,
      "Ġtypical": 6233,
      "Ġseries": 6234,
      "Ġchildren": 6235,
      "Ġbranch": 6236,
      "module": 6237,
      "Ġinteresting": 6238,
      "Ġindependent": 6239,
      "Ġfilled": 6240,
      "ĠDEBUG": 6241,
      "*Ċ": 6242,
      "-dev": 6243,
      "<string": 6244,
      "Foo": 6245,
      "Otherwise": 6246,
      "TC": 6247,
      "Two": 6248,
      "_val": 6249,
      "_buffer": 6250,
      "afe": 6251,
      "bs": 6252,
      "mk": 6253,
      "total": 6254,
      "putchar": 6255,
      "cannot": 6256,
      "ecess": 6257,
      "ĠFoo": 6258,
      "Ġexpert": 6259,
      "Ġdisplays": 6260,
      "Ġsuggested": 6261,
      "ENT": 6262,
      "Ġinvokes": 6263,
      "Ġplugin": 6264,
      "/de": 6265,
      "GTK": 6266,
      "cent": 6267,
      "ges": 6268,
      "limit": 6269,
      "including": 6270,
      "asing": 6271,
      "Ġvol": 6272,
      "please": 6273,
      "ethis": 6274,
      "Ġlibs": 6275,
      "Ġbrows": 6276,
      "Project": 6277,
      "Ġmanagement": 6278,
      "seconds": 6279,
      "Ġexpansion": 6280,
      "(k": 6281,
      ".n": 6282,
      "/to": 6283,
      "_write": 6284,
      "buff": 6285,
      "jor": 6286,
      "yes": 6287,
      "Ġther": 6288,
      "Ġomp": 6289,
      "Ġeg": 6290,
      "Ġtra": 6291,
      "Ġanymore": 6292,
      "anges": 6293,
      "ynamic": 6294,
      "position": 6295,
      "execl": 6296,
      "Ġconcatenate": 6297,
      "Ġroutine": 6298,
      "Ġviolation": 6299,
      "Ġverify": 6300,
      "Ġscenario": 6301,
      "Ġbrackets": 6302,
      "(long": 6303,
      ",char": 6304,
      "-end": 6305,
      "-gcc": 6306,
      "364": 6307,
      "lab": 6308,
      "light": 6309,
      "anced": 6310,
      "ocation": 6311,
      "emon": 6312,
      "ooking": 6313,
      "Ġnear": 6314,
      "liant": 6315,
      "ĠOutput": 6316,
      ");//": 6317,
      "ĠDon": 6318,
      "Format": 6319,
      "Ġinterview": 6320,
      "Alternatively": 6321,
      "Ġbreakpoint": 6322,
      "Ġbraces": 6323,
      "sembly": 6324,
      "Ġdistance": 6325,
      "Ġrespectively": 6326,
      "Ġncurses": 6327,
      "Ġtrigger": 6328,
      "(;": 6329,
      "-file": 6330,
      "748": 6331,
      "_pointer": 6332,
      "bind": 6333,
      "git": 6334,
      "atur": 6335,
      "Ġpipes": 6336,
      "store": 6337,
      "Ġbus": 6338,
      "iment": 6339,
      "loy": 6340,
      "ypedef": 6341,
      "Stat": 6342,
      "abcd": 6343,
      "Ġprocedure": 6344,
      "Desktop": 6345,
      "Ġcombination": 6346,
      "*a": 6347,
      ".l": 6348,
      "Blocks": 6349,
      "Lib": 6350,
      "_x": 6351,
      "_add": 6352,
      "_lock": 6353,
      "stood": 6354,
      "ched": 6355,
      "entr": 6356,
      "Ġproduct": 6357,
      "ĠĠĠĠĠĠĠĠĠĠĠĠĠĠĠĠĠ": 6358,
      "[]={": 6359,
      "Ġdifferently": 6360,
      "DEBUG": 6361,
      "Arg": 6362,
      "Arr": 6363,
      "Ġdocumented": 6364,
      "php": 6365,
      "ĠProcess": 6366,
      "Ġutility": 6367,
      "RAY": 6368,
      "Ġbottom": 6369,
      ".r": 6370,
      ".open": 6371,
      "/j": 6372,
      "Ad": 6373,
      "OC": 6374,
      "_pr": 6375,
      "gre": 6376,
      "lt": 6377,
      "necess": 6378,
      "pcap": 6379,
      "rs": 6380,
      "Ġ....": 6381,
      "Ġtasks": 6382,
      "Ġhis": 6383,
      "Ġbeyond": 6384,
      "Ġhack": 6385,
      "Ġconven": 6386,
      "Ġvalgrind": 6387,
      "LAB": 6388,
      "409": 6389,
      "ysis": 6390,
      "UNCTION": 6391,
      "debugging": 6392,
      "Ġtechni": 6393,
      "ĠTRUE": 6394,
      "_CREAT": 6395,
      "\"\\": 6396,
      "%%": 6397,
      ")==": 6398,
      "Copy": 6399,
      "NET": 6400,
      "TL": 6401,
      "iction": 6402,
      "ok": 6403,
      "Ġmk": 6404,
      "Ġmapping": 6405,
      "ĠSh": 6406,
      "ĠNUL": 6407,
      "--)Ċ": 6408,
      "structor": 6409,
      "Ġlinkage": 6410,
      "Ġtermination": 6411,
      "Ġlargest": 6412,
      "Integer": 6413,
      "Ġentirely": 6414,
      "Ġtutorials": 6415,
      "Ġsufficient": 6416,
      "Ġupdated": 6417,
      "(w": 6418,
      "*/": 6419,
      ".i": 6420,
      ">,": 6421,
      "VA": 6422,
      "evalu": 6423,
      "ra": 6424,
      "sudo": 6425,
      "Ġtou": 6426,
      "Ġpick": 6427,
      "aring": 6428,
      "ĠCUR": 6429,
      "stra": 6430,
      "Ġtrace": 6431,
      "acters": 6432,
      "Ġplan": 6433,
      "Ġoverhead": 6434,
      "Ġgenerator": 6435,
      "Ġthrows": 6436,
      "Ġ....Ċ": 6437,
      "Ġsorted": 6438,
      "Ġeffects": 6439,
      "Undefined": 6440,
      ">>>": 6441,
      "Ġfflush": 6442,
      "Ġsuspect": 6443,
      "declaration": 6444,
      ",NULL": 6445,
      "52": 6446,
      "63": 6447,
      "=NULL": 6448,
      "Float": 6449,
      "Out": 6450,
      "Pl": 6451,
      "SY": 6452,
      "]!=": 6453,
      "awn": 6454,
      "ds": 6455,
      "havi": 6456,
      "uv": 6457,
      "year": 6458,
      "Ġternary": 6459,
      "sel": 6460,
      "Ġstand": 6461,
      "endl": 6462,
      "ĠMost": 6463,
      "ĠFOO": 6464,
      "327": 6465,
      "Ġmanage": 6466,
      "Ġmanner": 6467,
      "(sock": 6468,
      "_info": 6469,
      "Ġoptimized": 6470,
      "Ġfully": 6471,
      "},{": 6472,
      "Ġdatatype": 6473,
      "Ġlayout": 6474,
      "199": 6475,
      "EM": 6476,
      "HA": 6477,
      "[%": 6478,
      "either": 6479,
      "mmap": 6480,
      "river": 6481,
      "Ġtim": 6482,
      "Ġaster": 6483,
      "Ġflex": 6484,
      "Ġtochar": 6485,
      "Ġrender": 6486,
      "Ġworry": 6487,
      "ĠNS": 6488,
      "Ġwasn": 6489,
      "Ġplus": 6490,
      "Ġexponent": 6491,
      "Ġformula": 6492,
      "ĠThus": 6493,
      "Ġgenerating": 6494,
      "Ġobjective": 6495,
      "Ġguys": 6496,
      "Ġ...)": 6497,
      "Ġaccur": 6498,
      "Ġclients": 6499,
      "Ġreached": 6500,
      "Ġenabled": 6501,
      "Ġearlier": 6502,
      "Ġsuitable": 6503,
      "Ġinterfaces": 6504,
      ")=": 6505,
      "EAD": 6506,
      "UINT": 6507,
      "World": 6508,
      "windows": 6509,
      "inct": 6510,
      "inline": 6511,
      "Ġsin": 6512,
      "itical": 6513,
      "amily": 6514,
      "Ġstrn": 6515,
      "Ġcomponent": 6516,
      "Ġwants": 6517,
      "Ġsomewhat": 6518,
      "Ġunexpected": 6519,
      "iostream": 6520,
      "Ġunderlying": 6521,
      "Ġexpanded": 6522,
      "Ġlocations": 6523,
      "Ġguid": 6524,
      "lags": 6525,
      ".tm": 6526,
      "Ġsubsequ": 6527,
      "Ġdrive": 6528,
      "Ġeffectively": 6529,
      "clear": 6530,
      "Ġpreviously": 6531,
      "UPDATE": 6532,
      "FAULT": 6533,
      "Currently": 6534,
      "(g": 6535,
      ",'": 6536,
      ",s": 6537,
      ",str": 6538,
      "/file": 6539,
      "ECT": 6540,
      "Rect": 6541,
      "cb": 6542,
      "such": 6543,
      "ym": 6544,
      "Ġaverage": 6545,
      "Ġtoprintf": 6546,
      "enable": 6547,
      "ometimes": 6548,
      "ĠCom": 6549,
      "emat": 6550,
      "erscore": 6551,
      "()(": 6552,
      "ĠĠĠĠĠĠĠĊ": 6553,
      "Ġdoesnt": 6554,
      "Ġplaying": 6555,
      "-comp": 6556,
      "79": 6557,
      "<conio": 6558,
      "OUN": 6559,
      "SP": 6560,
      "UDA": 6561,
      "gine": 6562,
      "ipped": 6563,
      "Ġcc": 6564,
      "Ġtoday": 6565,
      "ising": 6566,
      "Ġls": 6567,
      "seg": 6568,
      "Ġchunk": 6569,
      "Ġadjust": 6570,
      "conversion": 6571,
      "pecifically": 6572,
      "ĠWr": 6573,
      "ĠĠĠĠĠĊ": 6574,
      "STD": 6575,
      "Ġhandled": 6576,
      "Ġtoolchain": 6577,
      "Ġassumes": 6578,
      "_input": 6579,
      "Ġshortest": 6580,
      "Ġrecommended": 6581,
      "Ġmatches": 6582,
      "heap": 6583,
      "/types": 6584,
      "Ġhomework": 6585,
      "Ġshifting": 6586,
      "End": 6587,
      "_INT": 6588,
      "_header": 6589,
      "pi": 6590,
      "Ġcat": 6591,
      "ename": 6592,
      "aris": 6593,
      "alph": 6594,
      "Ġdb": 6595,
      "Ġlatest": 6596,
      "Ġrestrict": 6597,
      "Ġ**)": 6598,
      "Ġcompared": 6599,
      "ferences": 6600,
      "Ġleaks": 6601,
      "ethe": 6602,
      "Ġtypecast": 6603,
      "ĠIts": 6604,
      "120": 6605,
      ">ĊĊĊ": 6606,
      "ensive": 6607,
      "Ġactive": 6608,
      "Ġstdio": 6609,
      "Ġrequirements": 6610,
      "Ġgoto": 6611,
      "Ġdeclares": 6612,
      "Ġconnections": 6613,
      "Ġsuffix": 6614,
      "(e": 6615,
      "Date": 6616,
      "LP": 6617,
      "[c": 6618,
      "hash": 6619,
      "might": 6620,
      "py": 6621,
      "srand": 6622,
      "Ġtar": 6623,
      "ĠiP": 6624,
      "Ġmine": 6625,
      "omes": 6626,
      "Ġpopen": 6627,
      "anging": 6628,
      "Ġapplied": 6629,
      "âĢ¦": 6630,
      "pointers": 6631,
      "symbol": 6632,
      "Ġsorting": 6633,
      ".We": 6634,
      "429": 6635,
      "ĠArduino": 6636,
      "ygen": 6637,
      "Questions": 6638,
      "contains": 6639,
      "';ĊĊ": 6640,
      "/net": 6641,
      "GR": 6642,
      "PORT": 6643,
      "_number": 6644,
      "limits": 6645,
      "oke": 6646,
      "zip": 6647,
      "Ġev": 6648,
      "ĠCall": 6649,
      "Ġtries": 6650,
      "Ġshor": 6651,
      "olved": 6652,
      "Ġsynchron": 6653,
      "ĠVC": 6654,
      "Ġinteract": 6655,
      "Ġclosing": 6656,
      "Ġidentify": 6657,
      "Ġsequences": 6658,
      "Ġolder": 6659,
      "Ġtopic": 6660,
      "Ġpressed": 6661,
      "Ġfrequ": 6662,
      "slash": 6663,
      "specified": 6664,
      "Ġadvantage": 6665,
      "%*": 6666,
      "':": 6667,
      "(and": 6668,
      "):Ċ": 6669,
      ".sh": 6670,
      "Link": 6671,
      "Word": 6672,
      "raph": 6673,
      "xygen": 6674,
      "Ġcpp": 6675,
      "Ġpad": 6676,
      "Ġpseudo": 6677,
      "dec": 6678,
      "asdf": 6679,
      "Ġdeb": 6680,
      "Ġstrdup": 6681,
      "Ġsucce": 6682,
      "Ġapparently": 6683,
      "Ġoptional": 6684,
      "recision": 6685,
      "Ġdrop": 6686,
      "LOPT": 6687,
      "ĠIPv": 6688,
      "Ġinternally": 6689,
      "monstr": 6690,
      "Ġreferenced": 6691,
      "pubs": 6692,
      "-and": 6693,
      "150": 6694,
      "61": 6695,
      "70": 6696,
      "??ĊĊ": 6697,
      "Bit": 6698,
      "DD": 6699,
      "_wait": 6700,
      "nce": 6701,
      "pis": 6702,
      "ta": 6703,
      "tl": 6704,
      "ze": 6705,
      "ĠĠĊĊ": 6706,
      "Ġir": 6707,
      "orage": 6708,
      "Ġofx": 6709,
      "++?ĊĊ": 6710,
      "putc": 6711,
      "oduct": 6712,
      "Ġapplies": 6713,
      "Ġclue": 6714,
      "ĠĠĠĠĠĠĊ": 6715,
      "plicit": 6716,
      "Although": 6717,
      "UTF": 6718,
      "Ġstreams": 6719,
      "Ġdetermined": 6720,
      "allest": 6721,
      "Ġregardless": 6722,
      "flows": 6723,
      "Ġmanipulate": 6724,
      "Ġdeprecated": 6725,
      "definition": 6726,
      "Ġguidance": 6727,
      "-x": 6728,
      "_buf": 6729,
      "aemon": 6730,
      "Ġsorry": 6731,
      "reference": 6732,
      "isation": 6733,
      "ascript": 6734,
      "ieved": 6735,
      "âĢĶ": 6736,
      "accept": 6737,
      "shell": 6738,
      "ĠHence": 6739,
      "MAKE": 6740,
      "Ġposted": 6741,
[...]
